A	-14.686071
Q	-14.686222
γ	-14.686122
、	-5.045199
。	-5.058252
一	-5.373125
一丁不识	-12.850000
一丁点儿	-12.850000
一万	-11.131433
一万两	-12.406807
一丈	-11.684132
一下	-8.427642
一下子	-10.078993
一不小心	-12.850000
一不扭众	-12.850000
一专多能	-12.850000
一世	-11.096557
一丘之貉	-12.850000
一丝	-10.584855
一丝不差	-12.850000
一丝不挂	-12.850000
一丝不紊	-12.850000
一丝不苟	-12.850000
一两	-11.529904
一两年	-12.217822
一两百	-12.853740
一个	-6.126375
一个个	-10.330338
一个劲	-12.850000
一个劲地	-13.186516
一个半个	-12.850000
一个多月	-11.587149
一个心眼	-12.850000
一个月	-10.617409
一中	-9.547423
一中全会	-12.603426
一串	-11.316361
一举	-11.569599
一举一动	-12.402839
一举万里	-12.850000
一举两得	-12.850000
一之为甚	-12.850000
一之已甚	-12.850000
一之谓甚	-12.850000
一九七	-13.186288
一九七六年	-13.186184
一九六二年	-12.402860
一九四	-12.402949
一乱涂地	-12.850000
一了	-12.850000
一了百了	-12.850000
一了百当	-12.850000
一争高低	-12.850000
一事	-11.695723
一事不知	-12.850000
一事无成	-13.186172
一二	-10.675014
一二九	-12.097098
一五一十	-12.852852
一些	-7.670251
一些半些	-12.850000
一人有庆	-12.850000
一仆二主	-12.850000
一介不取	-12.850000
一介不苟	-12.850000
一代	-10.141612
一代楷模	-12.850000
一代风流	-12.850000
一令纸	-12.850000
一以当十	-12.850000
一以当百	-12.850000
一件	-9.332033
一任	-12.850000
一份	-9.924474
一伙	-11.876822
一伙儿	-12.850000
一会	-9.942187
一会儿	-10.034966
一似	-12.850000
一位	-8.890858
一体	-10.616961
一体两面	-12.850000
一体化	-10.724899
一体同心	-12.850000
一佛出世	-12.850000
一例	-12.287660
一侧	-11.914296
一倍	-10.949902
一倡一和	-12.850000
一倡三叹	-12.850000
一倡百和	-12.850000
一偏之见	-12.850000
一偏之论	-12.850000
一元	-11.931950
一元化	-12.850000
一元大武	-12.850000
一元论	-12.850000
一八	-11.116229
一共	-11.338840
一具	-11.559881
一再	-11.115724
一出	-11.431705
一出戏	-12.850000
一刀	-10.844939
一刀两断	-12.850000
一刀切	-12.850000
一分	-11.006483
一分一毫	-12.850000
一分为二	-12.850000
一分子	-12.850000
一分钟	-11.824127
一切	-8.338634
一切万物	-12.850000
一切众生	-12.850000
一则	-11.200018
一刹那	-12.850000
一刻	-11.016691
一剑	-10.940951
一剑之任	-12.850000
一副	-10.579215
一力承当	-12.850000
一动不动	-11.759747
一劳永逸	-12.850000
一包	-12.098277
一包在内	-12.850000
一匡九合	-12.850000
一匹	-11.517488
一匹马	-12.850000
一千	-11.485047
一千两	-12.605787
一千二百	-12.602882
一千多	-12.433866
一半	-9.716604
一卧不起	-12.850000
一卷	-12.065718
一厢情愿	-13.186172
一去不复返	-13.186172
一双	-11.043782
一双两好	-12.850000
一反其道	-12.850000
一发	-11.318704
一发千钧	-12.850000
一口	-9.748264
一口两匙	-12.850000
一口同声	-12.850000
一口同音	-12.850000
一口咬定	-12.850000
一口气	-10.632131
一句	-8.828871
一句话	-12.850000
一只	-9.162227
一台	-11.597971
一叶扁舟	-12.850000
一叶报秋	-12.850000
一叶知秋	-12.850000
一叶迷山	-12.850000
一叶障目	-12.850000
一号	-11.632050
一同	-11.396449
一名	-9.733828
一吐为快	-12.850000
一向	-10.712494
一员	-11.441692
一周	-11.087469
一周年	-12.660901
一味	-11.405663
一呵而就	-12.850000
一呼再喏	-12.850000
一呼百应	-12.850000
一命呜呼	-12.850000
一品	-11.681476
一品红	-12.850000
一哄而上	-12.850000
一哄而散	-12.850000
一哄而起	-12.850000
一响	-11.476855
一哭二闹	-12.850000
一唱一和	-12.850000
一唱百和	-12.850000
一喷一醒	-12.850000
一回	-10.293536
一回儿	-12.850000
一团	-10.631622
一团和气	-12.850000
一国两制	-11.857224
一圈	-11.337031
一场	-9.305589
一场春梦	-12.850000
一场梦	-12.850000
一场空	-12.850000
一场雨	-12.850000
一坐尽倾	-12.850000
一坐尽惊	-12.850000
一块	-9.236503
一块儿	-11.509851
一堆	-11.154088
一塌糊涂	-12.850000
一声	-8.299377
一声不吭	-12.850000
一声不响	-12.236200
一处	-10.420949
一夔一契	-12.850000
一夕一朝	-12.850000
一夕之间	-12.850000
一多半	-12.850000
一夜	-10.670005
一夜情	-12.850000
一夜走红	-12.850000
一夜间	-12.269930
一大	-9.866597
一大半	-12.850000
一大堆	-12.850000
一大批	-12.850000
一大把	-12.850000
一大早	-12.096549
一天	-9.017059
一天一地	-12.850000
一天到晚	-12.402867
一天星斗	-12.850000
一夫一妻制	-13.186196
一夫之勇	-12.850000
一夫之用	-12.850000
一夫当关	-12.850000
一头	-10.533716
一头热	-12.850000
一套	-10.073082
一如	-11.673497
一如既往	-13.186184
一孔不达	-12.850000
一孔之见	-12.850000
一字一句	-13.186340
一字不易	-12.850000
一字不苟	-12.850000
一字排开	-12.852826
一字长城	-12.850000
一季度	-11.878144
一定	-7.898052
一定不易	-12.850000
一定不移	-12.850000
一定量	-12.267770
一家	-9.441516
一家一户	-12.850000
一家一火	-12.850000
一家一计	-12.850000
一家之主	-12.850000
一家之作	-12.850000
一家之学	-12.850000
一家之言	-12.850000
一家之计	-12.850000
一家之辞	-12.850000
一家人	-11.437655
一家子	-12.850000
一家无二	-12.850000
一家眷属	-12.850000
一家老小	-12.850000
一宿	-12.850000
一寸	-12.269954
一对	-10.536957
一封	-10.946095
一射之地	-12.850000
一小	-10.995576
一小撮	-12.850000
一尘不到	-12.850000
一尘不染	-12.850000
一尘不缁	-12.850000
一层	-10.021460
一届	-12.188036
一岁载赦	-12.850000
一差两讹	-12.850000
一差二悮	-12.850000
一差二误	-12.850000
一差二错	-12.850000
一差半错	-12.850000
一己之见	-12.850000
一帆顺风	-12.850000
一帆风顺	-12.852830
一带	-9.600772
一席之地	-13.186196
一席谈	-12.850000
一幅	-10.868755
一幕	-12.850000
一幢	-12.413462
一干	-12.850000
一干二净	-11.968304
一干人犯	-12.850000
一年	-9.154170
一年一度	-12.850000
一年到头	-12.850000
一年半载	-12.850000
一年级	-12.850000
一并	-12.850000
一床两好	-12.850000
一应	-12.850000
一应俱全	-12.850000
一度	-10.204792
一座	-9.413551
一张	-9.420109
一弹指顷	-12.850000
一彻万融	-12.850000
一往情深	-13.186172
一律	-10.365933
一得	-12.850000
一得之功	-12.850000
一得之愚	-12.850000
一得之见	-12.850000
一心	-11.268995
一心一意	-12.850000
一心同体	-12.850000
一心同功	-12.850000
一心同归	-12.850000
一心向往	-12.850000
一念之差	-12.850000
一念之间	-12.850000
一怒之下	-12.850000
一怔	-12.850000
一息奄奄	-12.850000
一意孤行	-12.850000
一成	-12.850000
一成不变	-12.236202
一成不易	-12.850000
一战	-12.000707
一所	-11.662313
一扇	-12.412278
一手	-10.615395
一扎	-12.850000
一打	-12.850000
一扫而光	-12.850000
一扫而空	-12.850000
一批	-9.566005
一技之长	-12.850000
一把	-9.295198
一把子	-12.850000
一把手	-12.109644
一把抓	-12.605851
一把死拿	-12.850000
一抔黄沙	-12.850000
一抹黑	-12.850000
一拍即合	-12.850000
一招	-9.876350
一拥而上	-12.093297
一拳	-11.034525
一掊土	-12.850000
一排	-11.270679
一掷百万	-12.850000
一撮	-12.850000
一支	-9.692901
一支半节	-12.850000
一改	-12.850000
一整套	-12.850000
一文不值	-12.850000
一文不名	-12.850000
一斤	-11.996608
一新	-11.161920
一方	-10.164329
一方之任	-12.850000
一方面	-10.146496
一旁	-11.295337
一无可取	-12.850000
一无所得	-12.850000
一无所有	-13.186925
一无所知	-13.186214
一无所能	-12.850000
一无所见	-12.850000
一无所长	-12.850000
一无是处	-12.850000
一无长物	-12.850000
一日	-10.152226
一日万几	-12.850000
一日万机	-12.850000
一日万里	-12.850000
一日三省	-12.850000
一日三秋	-12.850000
一日之长	-12.850000
一旦	-9.490247
一早	-11.453103
一时	-9.381778
一时一刻	-12.850000
一时伯仲	-12.850000
一时千载	-12.850000
一时得逞	-12.850000
一时期	-12.078217
一时疏忽	-12.850000
一时间	-11.770236
一星儿	-12.850000
一显身手	-12.850000
一晃	-12.118332
一暝不视	-12.850000
一暴十寒	-12.850000
一曝十寒	-12.850000
一曲阳关	-12.850000
一月	-12.850000
一服	-12.850000
一服药	-12.850000
一望无垠	-12.850000
一望无涯	-12.850000
一望无际	-12.602859
一望而知	-12.850000
一朝	-12.850000
一朝一夕	-12.850000
一朝之忿	-12.850000
一朝之患	-12.850000
一朝千里	-12.850000
一期	-12.850000
一木难支	-12.850000
一本	-11.250257
一本万利	-12.850000
一本正经	-12.402844
一朵	-11.813140
一束	-11.777016
一条	-8.690134
一条心	-12.850000
一条龙	-12.850000
一来	-11.322727
一杯	-10.759795
一枕南柯	-12.850000
一枚	-11.393473
一枝	-11.782731
一枝一栖	-12.850000
一枝一节	-12.850000
一枝之栖	-12.850000
一枝香	-12.850000
一枪	-12.060631
一架	-11.278444
一栖两雄	-12.850000
一株	-11.197912
一样	-8.024326
一根	-10.078434
一梦华胥	-12.850000
一棵	-11.044906
一概	-12.105446
一概而论	-12.850000
一榻横陈	-12.850000
一模一样	-11.757202
一模二样	-12.850000
一次	-8.192086
一次性	-12.000383
一款	-12.016466
一步	-9.559321
一步一个脚印	-12.402808
一步一步	-12.850000
一步一趋	-12.850000
一步步	-12.615174
一步步地	-12.850000
一死了之	-12.850000
一段	-9.729115
一毛不拔	-12.850000
一毫不差	-12.850000
一毫不染	-12.850000
一毫不苟	-12.850000
一民同俗	-12.850000
一气之下	-12.850000
一气呵成	-12.850000
一氧化碳	-12.850000
一沓纸	-12.850000
一沓钞票	-12.850000
一波万波	-12.850000
一波三折	-12.850000
一泻万里	-12.850000
一泻千里	-12.850000
一派	-10.775565
一派胡言	-12.850000
一流	-10.930624
一浆十饼	-12.850000
一清二楚	-12.236165
一清宿弊	-12.850000
一溜	-12.123507
一溜儿	-12.850000
一溜歪斜	-12.850000
一溜烟	-12.850000
一溜风	-12.850000
一灯	-11.070492
一点	-8.323453
一点一滴	-13.186214
一点儿	-11.086095
一点点	-12.168322
一点钟	-12.850000
一熏一莸	-12.850000
一片	-9.180081
一片丹心	-12.850000
一片冰心	-12.850000
一片宫商	-12.850000
一片散沙	-12.850000
一片昏黑	-12.850000
一片汪洋	-12.850000
一片混乱	-12.850000
一片焦土	-12.850000
一片片	-12.614063
一片空白	-12.850000
一牛吼地	-12.850000
一牛鸣地	-12.850000
一物不知	-12.850000
一狐之掖	-12.850000
一现昙华	-12.850000
一班	-11.412995
一瓶	-12.465487
一生	-9.924309
一生一世	-12.853207
一男半女	-12.850000
一番	-9.700271
一病不起	-13.186124
一百	-10.917089
一百万	-12.638289
一百亿	-12.850000
一百多	-11.928634
一百多年	-12.865545
一百年	-12.130939
一盆	-12.268209
一盏	-12.080949
一盘	-11.939953
一盘散沙	-12.850000
一目	-11.842161
一目了然	-13.186160
一目五行	-12.850000
一目十行	-12.850000
一目数行	-12.850000
一直	-8.127385
一直走	-12.850000
一相情原	-12.850000
一相情愿	-12.850000
一眼	-9.426512
一瞑不视	-12.850000
一瞥	-12.100242
一瞬	-12.085423
一知半见	-12.850000
一知半解	-12.852839
一知片解	-12.850000
一石二鸟	-12.850000
一码事	-12.850000
一砖一瓦	-12.850000
一碗	-10.958315
一碧万顷	-12.850000
一神教	-12.850000
一秉大公	-12.850000
一种	-7.667552
一空依傍	-12.850000
一窍不通	-12.402797
一窝风	-12.850000
一端	-11.255857
一笑了之	-12.850000
一笑了事	-12.850000
一笔	-10.708199
一笔不苟	-12.850000
一笔勾断	-12.850000
一笔勾消	-12.850000
一笔勾销	-12.850000
一笔带过	-12.850000
一笔抹摋	-12.850000
一笔抹杀	-12.850000
一笔抹煞	-12.850000
一等奖	-12.236410
一筹	-12.572537
一筹莫展	-12.850000
一箭上垛	-12.850000
一箭之地	-12.850000
一篇	-10.771106
一篇文章	-12.850000
一米线	-12.850000
一类	-10.235661
一粒	-11.382699
一系列	-9.574982
一索得男	-12.850000
一级	-9.283556
一纸空文	-12.850000
一线	-10.554397
一线之隔	-12.850000
一组	-11.484777
一统	-12.131823
一缕	-12.607966
一缘一会	-12.850000
一网尽扫	-12.850000
一网打尽	-13.186160
一群	-10.444479
一者	-12.850000
一而再	-12.850000
一肚子	-12.850000
一股	-9.742862
一股劲	-12.850000
一股劲儿	-12.850000
一肢一节	-12.850000
一肢半节	-12.850000
一脉同气	-12.850000
一脉相传	-12.850000
一脉相承	-12.850000
一脉相通	-12.850000
一脉香烟	-12.850000
一脚	-11.306165
一脚不移	-12.850000
一脸	-11.264269
一臂之力	-12.852821
一致	-9.372675
一般	-7.693590
一般化	-12.850000
一般来说	-12.626840
一般见识	-12.850000
一般说来	-11.759434
一艘	-11.361717
一艘船	-12.850000
一节	-12.042743
一苇可航	-12.850000
一落千丈	-12.850000
一虎不河	-12.850000
一蛇两头	-12.850000
一行	-10.545639
一行人	-12.850000
一行作吏	-12.850000
一褱而论	-12.850000
一见了然	-12.850000
一见倾心	-12.850000
一见如故	-12.850000
一见如旧	-12.850000
一见钟情	-12.850000
一视同仁	-13.186148
一览无遗	-12.850000
一觉	-12.850000
一角	-12.850000
一触即发	-12.850000
一触即溃	-12.850000
一言一行	-13.186190
一言不发	-12.236161
一言两语	-12.850000
一言丧邦	-12.850000
一言中的	-12.850000
一言为定	-12.850000
一言九鼎	-12.850000
一言兴邦	-12.850000
一言半句	-12.850000
一言半语	-12.850000
一言既出	-13.186220
一言难尽	-12.850000
一语中人	-12.850000
一语中的	-12.850000
一语双关	-12.850000
一语破的	-12.850000
一语道破	-12.850000
一诺千金	-12.850000
一谷不升	-12.850000
一谷不登	-12.850000
一败涂地	-12.850000
一贫如洗	-12.850000
一贯	-11.095740
一贯性	-12.850000
一走了之	-12.850000
一起	-8.340184
一趟	-11.255372
一跌不振	-12.850000
一路	-10.132357
一路上	-12.020720
一路平安	-12.850000
一路神祇	-12.850000
一路顺风	-12.850000
一路风尘	-12.850000
一路风清	-12.850000
一蹴可几	-12.850000
一蹴而就	-12.850000
一蹴而得	-12.850000
一蹶不兴	-12.850000
一蹶不振	-12.850000
一身	-10.261660
一身两头	-12.850000
一身二任	-12.850000
一轨同风	-12.850000
一转眼	-12.850000
一轮	-11.650517
一轰而散	-12.850000
一辆	-11.195675
一辈子	-10.388093
一辞同轨	-12.850000
一辞莫赞	-12.850000
一边	-9.267127
一边倒	-12.850000
一迎一和	-12.850000
一还一报	-12.850000
一连	-12.048916
一连串	-12.852951
一连气儿	-12.850000
一通	-12.022153
一遍	-10.283676
一道	-9.812065
一遭	-12.262239
一邱之貉	-12.850000
一部	-10.043664
一部分	-9.589655
一重一掩	-12.850000
一针	-12.291938
一针见血	-12.850000
一钱不值	-12.850000
一钱不名	-12.850000
一锅粥	-12.850000
一长一短	-12.850000
一长两短	-12.850000
一长串	-12.850000
一长二短	-12.850000
一长半短	-12.850000
一门	-10.551321
一门同气	-12.850000
一门心思	-12.850000
一间	-10.729334
一队	-10.886805
一阵	-8.925630
一阵子	-11.596103
一阵阵	-11.866211
一阵风	-12.874979
一院制	-11.191076
一隅	-11.438745
一隅之地	-12.850000
一隅之见	-12.850000
一隅之说	-12.850000
一霎那	-12.850000
一面	-9.078522
一面之缘	-12.850000
一面之识	-12.850000
一面倒	-12.850000
一鞭先著	-12.850000
一页	-9.772520
一顶	-11.783039
一项	-10.108332
一顿	-10.323039
一颗	-10.204104
一风吹	-12.850000
一飞冲天	-12.850000
一首	-11.194892
一马当先	-12.850000
一驮粮	-12.850000
一骨碌	-12.850000
一鳞一爪	-12.850000
一鳞半爪	-12.850000
一鳞片爪	-12.850000
一鳞片甲	-12.850000
一鸣惊人	-12.850000
一齐	-10.262554
一齐众楚	-12.850000
一龙一蛇	-12.850000
丁	-9.077483
丁一卯二	-12.850000
丁一确二	-12.850000
丁丁	-12.850000
丁丁当当	-12.850000
丁丑	-12.850000
丁东	-12.850000
丁亥	-12.850000
丁公凿井	-12.850000
丁公藤	-12.850000
丁冬	-12.850000
丁卯	-13.186576
丁国宝	-12.603058
丁坝	-12.850000
丁大旺	-11.857212
丁字	-12.850000
丁字尺	-12.850000
丁字形	-12.850000
丁字街	-12.850000
丁宁	-12.850000
丁当	-12.850000
丁忧	-12.850000
丁思甜	-11.757213
丁敏君	-12.236176
丁春秋	-12.237371
丁未	-12.850000
丁汝昌	-12.236172
丁点儿	-12.850000
丁烯	-13.186738
丁石孙	-12.852843
丁能通	-10.758993
丁艰	-12.850000
丁零	-12.850000
丁零当啷	-12.850000
丁香	-12.850000
丁香花	-12.850000
丂	-14.686172
七	-8.379685
七上八下	-13.186136
七上八落	-12.850000
七个	-11.017194
七了八当	-12.850000
七八	-11.220259
七八个	-12.865188
七十	-11.672379
七十二	-12.406768
七十二行	-12.850000
七十岁	-12.403633
七千	-12.240858
七叶树	-12.850000
七大	-12.850000
七大八小	-12.850000
七大洲	-12.850000
七尺之躯	-12.850000
七年	-10.941074
七座	-11.654358
七开八得	-12.850000
七情六欲	-12.850000
七折八扣	-12.850000
七担八挪	-12.850000
七拉八扯	-12.850000
七拱八翘	-12.850000
七擒七纵	-12.850000
七星	-11.815695
七月	-11.917300
七棱八瓣	-12.850000
七横八竖	-12.850000
七步八叉	-12.850000
七病八倒	-12.850000
七相五公	-12.850000
七窍冒火	-12.850000
七纵七擒	-12.850000
七纵七禽	-12.850000
七纵八横	-12.850000
七老八倒	-12.850000
七行俱下	-12.850000
七言八语	-12.850000
七返还丹	-12.850000
七长八短	-12.850000
七零八落	-12.402797
七颠八倒	-12.850000
万	-7.403097
万一	-10.618014
万万	-10.836204
万万千千	-12.850000
万丈	-12.850000
万丈深渊	-12.850000
万不失一	-12.850000
万不得已	-12.850000
万世	-12.261556
万世一时	-12.850000
万世不易	-12.850000
万世师表	-12.850000
万世无疆	-12.850000
万世流芳	-12.850000
万事	-12.357757
万事亨通	-12.850000
万事俱备	-12.850000
万事大吉	-12.850000
万事通	-12.850000
万亩	-9.958807
万人之敌	-12.850000
万人坑	-12.850000
万人次	-11.507183
万人空巷	-12.850000
万代千秋	-12.850000
万众	-12.850000
万众一心	-12.850000
万余	-11.122135
万俟	-12.850000
万儿八千	-12.850000
万元	-9.008516
万全	-12.850000
万全之策	-12.850000
万全之计	-12.850000
万公斤	-11.308659
万公里	-11.999936
万公顷	-9.990143
万分	-11.241333
万别千差	-12.850000
万劫不复	-12.850000
万千	-12.574645
万千瓦	-11.757285
万卷	-12.850000
万历	-10.833198
万口一词	-12.850000
万口一谈	-12.850000
万口一辞	-12.850000
万古	-12.850000
万古千秋	-12.850000
万古流芳	-12.850000
万古留芳	-12.850000
万古长存	-12.850000
万古长春	-12.850000
万古长青	-12.850000
万台	-12.464779
万名	-11.856215
万向	-12.141252
万吨	-9.484967
万吨级	-12.608216
万国	-12.850000
万块	-12.622621
万壑争流	-12.850000
万壑千岩	-12.850000
万多	-11.577788
万多亩	-11.040839
万多元	-12.857361
万多公里	-12.604723
万多公顷	-13.186233
万夫不当	-12.850000
万夫莫当	-12.850000
万头	-12.344954
万头攒动	-12.850000
万学远	-12.402827
万安	-12.850000
万家	-10.960910
万家灯火	-12.850000
万家生佛	-12.850000
万寿无疆	-12.850000
万尾	-11.511318
万岁	-10.155008
万岁千秋	-12.850000
万平方公里	-10.599056
万平方米	-10.483367
万年	-10.980776
万年历	-12.850000
万年无疆	-12.850000
万年青	-12.850000
万幸	-12.850000
万应灵丹	-12.850000
万应锭	-12.850000
万念俱寂	-12.850000
万念俱灰	-12.850000
万恨千愁	-12.850000
万恶	-12.850000
万户	-12.277029
万户侯	-12.850000
万户千门	-12.850000
万斤	-12.609920
万方	-12.000213
万无一失	-12.852847
万有	-12.850000
万有引力	-12.402847
万机	-12.850000
万死	-12.850000
万死一生	-12.852847
万死不辞	-12.850000
万死犹轻	-12.850000
万民	-12.850000
万民涂炭	-12.850000
万水千山	-12.850000
万流景仰	-12.850000
万物	-11.518040
万物之灵	-12.850000
万状	-12.850000
万目睚眦	-12.850000
万目睽睽	-12.850000
万福	-12.850000
万种	-11.973242
万立方米	-11.191472
万端	-12.850000
万签插架	-12.850000
万箭攒心	-12.850000
万箭穿心	-12.850000
万籁	-12.850000
万籁俱寂	-12.850000
万籁无声	-12.850000
万紫千红	-12.850000
万绪千头	-12.850000
万绪千端	-12.850000
万缕千丝	-12.850000
万美元	-10.595009
万股	-11.675173
万能	-12.850000
万能胶	-12.850000
万般	-12.850000
万花筒	-12.850000
万苦千辛	-12.850000
万英镑	-12.907969
万语千言	-12.850000
万象	-12.850000
万象更新	-12.850000
万象森罗	-12.850000
万贯	-12.850000
万贯家私	-12.850000
万贯家财	-12.850000
万赖俱寂	-12.850000
万赖无声	-12.850000
万载千秋	-12.850000
万辆	-10.796309
万选青钱	-12.850000
万里	-11.168743
万里无云	-12.850000
万里迢迢	-13.186166
万里长城	-12.850000
万里长征	-12.850000
万里鹏程	-12.850000
万里鹏翼	-12.850000
万金	-12.850000
万金油	-12.850000
万镑	-12.862761
万难	-12.850000
万震山	-13.186154
万顷	-12.850000
万马奔腾	-12.850000
万马齐喑	-12.850000
丈	-10.361768
丈二和尚	-12.850000
丈八蛇矛	-12.850000
丈夫	-9.578631
丈母娘	-12.852856
丈量	-12.850000
三	-6.938793
三万	-11.831740
三万多	-12.241343
三丈	-12.099120
三下五除二	-13.186208
三不拗六	-12.850000
三不知	-12.850000
三不管	-12.850000
三世	-12.065910
三个	-8.989489
三个世界	-12.850000
三个代表	-12.419877
三个面向	-12.850000
三中全会	-12.093822
三五成群	-12.852869
三亚	-12.272328
三产	-12.850000
三亲六故	-12.850000
三亲六眷	-12.850000
三亲四眷	-12.850000
三人为众	-12.850000
三从四德	-12.850000
三代	-11.879580
三令五申	-12.850000
三件	-12.264659
三位	-11.087090
三位一体	-12.853024
三余读书	-12.850000
三元	-11.636382
三八作风	-12.850000
三八节	-12.850000
三六九等	-12.850000
三军	-11.511271
三分	-10.230637
三分球	-12.237475
三分鼎立	-12.850000
三分鼎足	-12.850000
三副	-12.850000
三北	-12.850000
三十	-10.620727
三十三年	-12.607956
三十二	-12.192159
三十余	-12.449299
三十余名	-13.187691
三十儿	-12.850000
三十六	-11.481705
三十六策	-12.850000
三十六行	-12.850000
三十六计	-12.850000
三十岁	-12.473944
三十年	-11.187244
三十里	-12.871185
三千	-11.275105
三千粒	-12.602981
三占从二	-12.850000
三叉	-12.098177
三叉戟	-12.850000
三只	-11.922835
三只手	-12.850000
三台	-12.850000
三台八座	-12.850000
三叶虫	-12.850000
三号	-12.850000
三合	-11.322817
三合会	-12.850000
三合土	-12.850000
三合房	-12.850000
三合板	-12.850000
三名	-11.356616
三吐三握	-12.850000
三品	-11.678831
三哥	-12.427314
三四	-11.872972
三四个	-12.627445
三四十	-12.419101
三四千	-13.188643
三四天	-12.855698
三回九转	-12.850000
三国	-11.237852
三国志	-13.187208
三场	-12.481370
三声	-12.160301
三大作风	-12.850000
三大差别	-12.850000
三大战役	-12.850000
三大政策	-12.850000
三大法宝	-12.850000
三天	-10.542713
三天两头	-12.850000
三天两宿	-12.850000
三夫之对	-12.850000
三夫之言	-12.850000
三头两日	-12.850000
三头两绪	-12.850000
三头两面	-12.850000
三头八臂	-12.850000
三头六臂	-12.850000
三头六证	-12.850000
三头六面	-12.850000
三头对案	-12.850000
三好	-12.850000
三好两歉	-12.850000
三好两歹	-12.850000
三好二怯	-12.850000
三好生	-12.850000
三妻四妾	-12.850000
三姑六婆	-12.850000
三媒六证	-12.850000
三官庙	-12.852852
三宝	-12.645964
三宫六院	-12.850000
三家	-11.368898
三家村	-12.850000
三寸	-12.866595
三对六面	-12.850000
三尸暴跳	-12.850000
三尺	-12.610690
三局	-12.630468
三层	-10.458023
三岔路口	-12.850000
三峡	-9.945492
三峡大坝	-12.402915
三差两错	-12.850000
三差五错	-12.850000
三年	-9.514691
三年五载	-12.850000
三年化碧	-12.850000
三度	-12.850000
三座	-11.601369
三座大山	-12.850000
三座门	-11.758333
三徙成都	-12.850000
三思	-12.850000
三思而行	-12.850000
三战三北	-12.850000
三户	-11.680293
三户亡秦	-12.850000
三折肱	-12.850000
三招	-11.877617
三推六问	-12.850000
三支	-12.621696
三教	-12.850000
三教九流	-12.850000
三日	-11.571783
三旨相公	-12.850000
三旬九食	-12.850000
三星	-12.419404
三星电子	-13.186552
三晋	-12.618131
三更	-12.850000
三更半夜	-12.850000
三月	-10.583338
三月三	-12.850000
三朝五日	-12.850000
三朝元老	-12.850000
三期贤佞	-12.850000
三权分立	-12.850000
三条	-11.779342
三枚	-12.174520
三枝	-12.869836
三棱镜	-12.850000
三榜定案	-12.850000
三次	-10.326170
三步	-11.534316
三段论	-12.852882
三民主义	-12.852856
三江七泽	-12.850000
三汤两割	-12.850000
三汤五割	-12.850000
三沐三熏	-12.850000
三灾八难	-12.850000
三灾六难	-12.850000
三点	-12.192052
三点式	-12.850000
三熏三沐	-12.850000
三王	-12.054988
三环	-12.632839
三班倒	-12.850000
三班六房	-12.850000
三瓦两巷	-12.850000
三瓦两舍	-12.850000
三生有幸	-12.850000
三番两次	-12.850000
三番五次	-13.186184
三百	-10.778894
三百多	-12.304873
三盘	-12.397691
三相	-12.850000
三省吾身	-12.850000
三种	-10.855145
三等奖	-12.602923
三类	-11.690023
三级	-10.842522
三级跳远	-12.850000
三结合	-12.850000
三维	-11.982286
三缄其口	-12.850000
三老五更	-12.850000
三老四少	-12.850000
三者	-12.069653
三联单	-12.850000
三脚猫	-12.850000
三臡八菹	-12.850000
三自爱国	-12.402842
三色堇	-12.850000
三节	-12.442646
三节两寿	-12.850000
三茶六礼	-12.850000
三茶六饭	-12.850000
三藏	-10.634576
三蛇七鼠	-12.850000
三行	-12.850000
三街六巷	-12.850000
三街六市	-12.850000
三角	-11.413833
三角债	-12.850000
三角函数	-12.850000
三角学	-12.850000
三角形	-12.025015
三角恋爱	-12.850000
三角板	-12.850000
三角洲	-11.305494
三角裤衩	-12.850000
三角铁	-12.850000
三言两句	-12.850000
三言两语	-12.850000
三路	-12.139757
三轮儿	-12.850000
三轮车	-12.850000
三迁之教	-12.850000
三连冠	-12.850000
三通	-12.474242
三部曲	-12.236177
三重	-12.150243
三重唱	-12.850000
三长两短	-12.852843
三长四短	-12.850000
三门	-11.879595
三间	-12.170790
三陪	-12.850000
三面	-11.094855
三面红旗	-12.850000
三项	-12.400877
三顾茅庐	-12.602829
三风十愆	-12.850000
三餐	-12.850000
三首六臂	-12.850000
三马同槽	-12.850000
三鲜	-12.621517
上	-5.458729
上上	-12.850000
上上下下	-12.852982
上下	-10.278717
上下一心	-12.850000
上下交困	-12.850000
上下其手	-12.850000
上下同心	-12.850000
上下同欲	-12.850000
上下同门	-12.850000
上下床	-12.850000
上下文	-12.850000
上下水	-12.633748
上下班	-12.869497
上下级	-12.850000
上不去	-12.850000
上世	-12.850000
上中农	-12.850000
上举	-12.850000
上乘	-12.850000
上书	-11.151202
上交	-11.974334
上交不谄	-12.850000
上京	-12.850000
上人	-12.850000
上代	-12.850000
上任	-11.921921
上位	-12.850000
上体	-12.850000
上供	-12.850000
上元	-12.850000
上元节	-12.850000
上光	-12.850000
上兵	-12.850000
上兵伐谋	-12.850000
上冻	-12.850000
上刑	-12.850000
上列	-12.850000
上前	-10.599483
上劲	-12.850000
上勤下顺	-12.850000
上医医国	-12.850000
上千	-12.850000
上升	-9.758772
上午	-9.990917
上半场	-10.910220
上半夜	-12.850000
上半天	-12.850000
上半年	-11.199604
上半时	-12.850000
上半晌	-12.850000
上半月	-12.850000
上半期	-12.852919
上半身	-12.850000
上南落北	-12.850000
上卷	-12.850000
上去	-9.671416
上口	-12.850000
上古	-12.850000
上台	-11.520096
上叶	-12.850000
上司	-11.159505
上吊	-12.850000
上吐下泻	-12.850000
上告	-12.850000
上周	-11.336469
上呼吸道	-12.850000
上和下睦	-12.850000
上品	-12.850000
上唇	-12.850000
上回	-12.850000
上场	-12.850000
上场门	-12.850000
上坟	-12.850000
上坡	-12.850000
上坡路	-12.850000
上堂	-12.850000
上士	-12.850000
上声	-12.850000
上夜	-12.850000
上天	-12.850000
上天入地	-12.850000
上头	-12.850000
上奏	-12.850000
上套	-12.850000
上好	-12.850000
上好下甚	-12.850000
上嫚下暴	-12.850000
上学	-11.785601
上官	-12.850000
上官云	-13.186377
上客	-12.850000
上家	-12.850000
上宾	-12.850000
上寿	-12.850000
上将	-12.850000
上尉	-12.850000
上层	-10.916296
上层建筑	-12.404021
上层社会	-12.850000
上届	-12.850000
上山	-12.850000
上山下乡	-12.850000
上岁数	-12.850000
上岸	-11.997285
上峰	-12.850000
上工	-12.850000
上市	-10.281659
上市公司	-12.850000
上帝	-10.800254
上年	-10.656379
上年纪	-12.850000
上床	-12.850000
上座	-12.850000
上座儿	-12.850000
上座率	-12.850000
上弦	-12.850000
上当	-11.755999
上当受骗	-12.850000
上当学乖	-12.850000
上心	-12.850000
上情	-12.850000
上情下达	-12.850000
上感	-12.850000
上慢下暴	-12.850000
上房	-12.850000
上手	-12.850000
上扬	-12.149241
上报	-11.456925
上推下卸	-12.850000
上援下推	-12.850000
上操	-12.850000
上文	-12.850000
上新世	-13.186727
上方	-11.449860
上方剑	-12.850000
上方宝剑	-12.850000
上旬	-12.605537
上映	-12.850000
上智下愚	-12.850000
上替下陵	-12.850000
上月	-12.850000
上朝	-12.850000
上机	-12.850000
上来	-9.789451
上林	-12.850000
上树拔梯	-12.850000
上校	-12.850000
上根大器	-12.850000
上档次	-12.850000
上梁	-12.850000
上楼	-12.253623
上楼去梯	-12.850000
上次	-10.987054
上款	-12.850000
上水	-12.850000
上油	-12.850000
上流	-12.850000
上流社会	-12.850000
上浮	-12.850000
上海	-8.322480
上海市	-10.379980
上海水产大学	-11.968326
上海证券交易所	-11.666293
上涨	-10.232288
上游	-10.406600
上溢下漏	-12.850000
上溯	-12.850000
上漏下湿	-12.850000
上演	-11.390693
上火	-12.850000
上烝下报	-12.850000
上焦	-12.850000
上爬	-12.299478
上班	-11.039877
上班族	-12.403337
上界	-12.850000
上疏	-12.850000
上瘾	-12.850000
上相	-12.850000
上税	-12.850000
上空	-11.094733
上窜下跳	-12.850000
上端	-12.850000
上竿掇梯	-12.850000
上等	-12.850000
上等兵	-12.850000
上策	-12.450267
上算	-12.850000
上篇上论	-12.850000
上篮	-12.247799
上簇	-12.850000
上粪	-12.850000
上紧	-12.850000
上级	-10.137448
上纲	-12.850000
上纲上线	-12.850000
上线	-11.325130
上缴	-12.111392
上网	-11.287287
上联	-12.850000
上肢	-12.850000
上肥	-12.850000
上脸	-12.850000
上膘	-12.850000
上膛	-12.850000
上色	-12.850000
上苍	-12.850000
上药	-12.850000
上菜	-12.850000
上蒸下报	-12.850000
上蜡	-12.850000
上行	-12.850000
上行下效	-12.850000
上街	-11.746781
上衣	-12.190448
上装	-12.850000
上西天	-12.850000
上规模	-12.162772
上计	-12.850000
上访	-12.442497
上诉	-12.850000
上课	-12.850000
上调	-12.850000
上谄下渎	-12.850000
上谕	-12.850000
上账	-12.850000
上货	-12.850000
上路	-12.850000
上蹿下跳	-12.850000
上身	-12.850000
上车	-11.815092
上轨道	-12.850000
上辈	-12.850000
上辈子	-12.850000
上边	-12.850000
上达	-12.850000
上进	-12.850000
上进心	-12.850000
上述	-9.453893
上选	-12.850000
上部	-11.992319
上钩	-12.850000
上铺	-12.850000
上锁	-12.850000
上门	-12.850000
上闩	-12.850000
上阵	-12.016165
上限	-12.459633
上院	-12.231030
上陵下替	-12.850000
上集	-12.850000
上雨旁风	-12.850000
上面	-9.513460
上鞋	-12.850000
上颚	-12.850000
上风	-12.850000
上首	-12.850000
上香	-12.850000
上马	-11.257299
下	-6.264297
下一代	-11.868613
下不为例	-12.850000
下不了台	-12.850000
下不来	-12.850000
下不来台	-12.850000
下丘脑	-12.602823
下中农	-12.850000
下乘	-12.850000
下乡	-11.824848
下井投石	-12.850000
下令	-10.528873
下体	-12.850000
下决心	-12.259999
下列	-11.010480
下功夫	-12.850000
下劲	-12.850000
下午	-9.582372
下半叶	-12.857409
下半场	-10.794739
下半年	-11.093506
下半时	-13.186584
下半月	-12.850000
下卷	-12.850000
下去	-8.687244
下发	-12.850000
下台	-12.850000
下同	-12.850000
下咽	-12.850000
下回分解	-12.602856
下地	-12.850000
下场	-12.162504
下场门	-12.850000
下垂	-11.677387
下塌	-12.850000
下塞上聋	-12.850000
下处	-12.850000
下大力气	-12.850000
下头	-12.850000
下学上达	-12.850000
下定决心	-12.402844
下家	-12.850000
下层	-11.704573
下属	-11.576378
下山	-11.544840
下岗	-10.329988
下工夫	-12.850000
下巴	-12.484018
下巴颏	-12.850000
下帖	-12.850000
下床	-12.850000
下情上达	-12.850000
下意识	-12.850000
下愚不移	-12.850000
下手	-11.673976
下拨	-12.850000
下旬	-11.583359
下来	-8.299044
下棋	-12.298952
下楼	-11.793864
下次	-11.363491
下毒	-12.850000
下毒手	-12.607754
下毛毛雨	-12.850000
下水	-11.162169
下沉	-12.643878
下泄	-12.850000
下流	-12.171709
下渗	-12.850000
下游	-10.669015
下滑	-11.684158
下潜	-12.850000
下狠心	-12.850000
下班	-11.786880
下眼皮	-12.850000
下礼拜	-12.850000
下种	-12.850000
下笔有神	-12.850000
下级	-10.628044
下落	-11.444830
下落不明	-12.850000
下行	-12.850000
下设	-11.055735
下调	-11.544294
下贱	-12.867619
下跌	-11.520420
下车	-11.815962
下车之始	-12.850000
下车伊始	-12.850000
下车作威	-12.850000
下车泣罪	-12.850000
下载	-10.734200
下辈子	-12.850000
下辖	-11.339215
下达	-11.193351
下述	-12.850000
下逐客令	-12.850000
下部	-11.499667
下铺	-12.850000
下锅	-11.984450
下陆区	-12.402861
下降	-9.487403
下院	-11.272846
下陵上替	-12.850000
下陷	-12.684693
下集	-12.850000
下雨	-11.391300
下面	-9.647759
下颌	-12.238541
下风	-12.850000
下马	-10.827830
下马冯妇	-12.850000
下马看花	-12.850000
不	-5.141364
不一	-12.850000
不一会儿	-12.143545
不一定	-12.850000
不一样	-12.850000
不一而足	-13.186148
不三不四	-12.850000
不上不下	-12.850000
不上不落	-12.850000
不下	-10.725396
不下于	-12.850000
不世之业	-12.850000
不世之功	-12.850000
不中	-12.850000
不中用	-12.850000
不丰不俭	-12.850000
不丰不杀	-12.850000
不丹	-12.850000
不为人知	-12.602880
不为已甚	-12.850000
不为瓦全	-12.850000
不主故常	-12.850000
不久	-9.609746
不久前	-11.459512
不义	-12.850000
不义之财	-12.850000
不乏	-11.764519
不乏先例	-12.850000
不乏其人	-12.850000
不乏其例	-12.850000
不习地土	-12.850000
不习水土	-12.850000
不了	-9.317355
不了不当	-12.850000
不了了之	-12.850000
不了而了	-12.850000
不予	-12.430631
不争	-12.850000
不争气	-12.850000
不事边幅	-12.850000
不二	-12.850000
不二价	-12.850000
不二法门	-12.850000
不亢不卑	-12.850000
不亦	-12.850000
不亦乐乎	-12.850000
不亦善夫	-12.850000
不亦说乎	-12.850000
不人道	-12.850000
不仁	-12.850000
不仅	-8.700731
不仅仅	-10.740881
不仅如此	-11.863511
不今不古	-12.850000
不介意	-12.850000
不以为奇	-12.850000
不以为意	-12.602893
不以为然	-12.093326
不以为耻	-12.850000
不以语人	-12.850000
不伏烧埋	-12.850000
不休	-11.799819
不会	-8.178299
不伤脾胃	-12.850000
不伦不类	-12.850000
不但	-9.747227
不住	-10.072388
不作声	-12.850000
不佞	-12.850000
不佳	-12.850000
不依	-12.850000
不依不饶	-12.850000
不便	-10.961563
不便水土	-12.850000
不俗	-12.850000
不信	-12.850000
不信邪	-12.850000
不修	-12.850000
不修小节	-12.850000
不修边幅	-12.850000
不倒翁	-12.850000
不倦	-12.850000
不值	-12.850000
不值一哂	-12.850000
不值一提	-12.602869
不值一笑	-12.850000
不值一钱	-12.850000
不值一顾	-12.850000
不值一驳	-12.850000
不假	-12.850000
不假思索	-12.850000
不偏不倚	-12.852847
不偏不党	-12.850000
不做不休	-12.850000
不做声	-12.853592
不停	-10.265910
不偢不倸	-12.850000
不像	-12.850000
不像话	-12.850000
不僧不俗	-12.850000
不光	-11.922663
不克	-12.850000
不免	-10.269062
不入时宜	-12.850000
不公	-12.850000
不共戴天	-12.850000
不关	-12.850000
不关痛痒	-12.850000
不关紧要	-12.850000
不兴	-12.850000
不具	-12.850000
不再	-9.311648
不冷不热	-12.850000
不冻港	-12.850000
不准	-11.025075
不凉不酸	-12.850000
不减	-12.287382
不凡	-12.084623
不出所料	-12.850000
不分	-12.850000
不分伯仲	-12.850000
不分彼此	-12.850000
不分玉石	-12.850000
不分畛域	-12.850000
不分皂白	-12.850000
不分轩轾	-12.850000
不分青白	-12.850000
不切实际	-12.850000
不切题	-12.850000
不刊之书	-12.850000
不刊之典	-12.850000
不刊之论	-12.850000
不刊之说	-12.850000
不列颠	-12.236167
不利	-10.237855
不利于	-11.446294
不到	-8.715462
不到位	-12.850000
不力	-12.850000
不务正业	-12.850000
不务空名	-12.850000
不劣方头	-12.850000
不动产	-12.850000
不动声色	-12.236154
不动如山	-12.850000
不劳而成	-12.850000
不劳而获	-12.850000
不勤而获	-12.850000
不卑不亢	-12.850000
不单	-12.850000
不即不离	-12.850000
不厌	-12.850000
不厌其烦	-12.850000
不厌其繁	-12.850000
不厌其详	-12.850000
不及	-10.633642
不及之法	-12.850000
不及格	-12.850000
不变	-10.366503
不变价格	-12.850000
不变资本	-11.435317
不古不今	-12.850000
不只	-12.850000
不可	-8.762939
不可一世	-13.187836
不可乡迩	-12.850000
不可企及	-12.850000
不可估量	-12.850000
不可偏废	-12.850000
不可分	-12.850000
不可分割	-13.187299
不可动摇	-12.850000
不可同日而语	-13.186298
不可名状	-12.850000
不可向迩	-12.850000
不可告人	-12.850000
不可多得	-12.850000
不可奈何	-12.850000
不可开交	-12.850000
不可思议	-11.857199
不可或缺	-13.186172
不可抗力	-12.850000
不可捉摸	-12.850000
不可揆度	-12.850000
不可摸捉	-12.850000
不可收拾	-12.850000
不可救疗	-12.850000
不可救药	-12.850000
不可教训	-12.850000
不可枚举	-12.850000
不可理喻	-12.850000
不可知论	-12.850000
不可磨灭	-12.850000
不可究诘	-12.850000
不可端倪	-12.850000
不可终日	-12.850000
不可胜举	-12.850000
不可胜数	-12.850000
不可胜算	-12.850000
不可胜纪	-12.850000
不可胜言	-12.850000
不可胜计	-12.850000
不可胜记	-12.850000
不可胜道	-12.850000
不可言传	-12.850000
不可言喻	-12.850000
不可言宣	-12.850000
不可言状	-12.850000
不可逆转	-12.853198
不可造次	-12.850000
不可逾越	-12.850000
不可避免	-11.139020
不可限量	-12.850000
不吃	-10.983523
不合	-11.729428
不合时宜	-12.236151
不合理	-12.026760
不同	-7.699565
不同于	-11.195233
不同凡响	-12.850000
不同戴天	-12.850000
不同流俗	-12.850000
不名一文	-12.850000
不名一格	-12.850000
不名一钱	-12.850000
不名誉	-12.850000
不吐不茹	-12.850000
不吝	-12.850000
不吝指教	-12.850000
不吝珠玉	-12.850000
不吝赐教	-12.850000
不含糊	-12.850000
不听	-12.850000
不周	-12.850000
不周延	-12.850000
不和	-12.850000
不咎既往	-12.850000
不咸不淡	-12.850000
不哼不哈	-12.850000
不啻	-12.850000
不啻天渊	-12.850000
不善	-11.595003
不因不由	-12.850000
不因人热	-12.850000
不图	-12.850000
不在	-12.850000
不在乎	-11.586593
不在意	-12.850000
不在话下	-12.602865
不均	-12.850000
不堪	-11.312934
不堪一击	-12.602869
不堪入目	-12.850000
不堪入耳	-12.850000
不堪其忧	-12.850000
不堪回首	-12.850000
不堪言状	-12.850000
不堪设想	-12.236249
不堪造就	-12.850000
不声不吭	-12.850000
不声不响	-13.186172
不声不气	-12.850000
不壹而三	-12.850000
不壹而足	-12.850000
不备	-12.850000
不复堪命	-12.850000
不外	-12.850000
不多时	-11.089637
不夜城	-12.850000
不够	-10.447654
不大	-12.850000
不大方便	-12.850000
不大离	-12.850000
不失	-11.956269
不失为	-12.411613
不失圭撮	-12.850000
不失时机	-12.850000
不失毫厘	-12.850000
不失黍絫	-12.850000
不夷不惠	-12.850000
不奈之何	-12.850000
不好	-9.860482
不好惹	-12.850000
不好意思	-11.583663
不好看	-12.850000
不好过	-12.850000
不如	-10.105079
不如归去	-12.850000
不如意	-12.850000
不妙	-11.900139
不妥	-11.977766
不妨	-10.725032
不媿下学	-12.850000
不孕	-12.850000
不存不济	-12.850000
不存芥蒂	-12.850000
不孝	-11.902067
不学无术	-12.850000
不学无识	-12.850000
不宁	-12.850000
不宁唯是	-12.850000
不安	-10.909458
不安于位	-12.850000
不安于室	-12.850000
不安其室	-12.850000
不安分	-12.850000
不定	-11.119935
不定积分	-12.850000
不宜	-11.015949
不实	-12.850000
不实之词	-12.850000
不客气	-12.850000
不宣而战	-12.850000
不容	-11.397992
不容分说	-12.850000
不容置喙	-12.850000
不容置疑	-12.850000
不容置辩	-12.850000
不寐	-12.850000
不寒而栗	-12.850000
不对	-12.850000
不对劲	-12.850000
不对味儿	-12.850000
不对头	-12.850000
不对茬儿	-12.850000
不小	-11.372653
不少	-8.910713
不尴不尬	-12.850000
不尽	-10.778413
不尽然	-12.850000
不屈	-11.047503
不屈不挠	-12.850000
不屑	-11.440292
不屑一读	-12.850000
不屑一顾	-12.850000
不屑于	-12.850000
不屑意	-12.850000
不屑教诲	-12.850000
不屑毁誉	-12.850000
不巧	-12.850000
不差	-12.850000
不差上下	-12.850000
不差什么	-12.850000
不差毫厘	-12.850000
不差毫发	-12.850000
不差累黍	-12.850000
不已	-10.651829
不常	-12.850000
不干	-12.850000
不干不净	-12.850000
不干胶	-12.850000
不平	-11.327897
不平则鸣	-12.850000
不幸	-10.295712
不废江河	-12.850000
不开眼	-12.850000
不弃草昧	-12.850000
不归路	-12.850000
不当	-11.702003
不当不正	-12.850000
不当人子	-12.850000
不待	-12.850000
不待蓍龟	-12.850000
不徇私情	-12.850000
不徐不疾	-12.850000
不得	-9.091181
不得不	-9.898707
不得不尔	-12.850000
不得了	-12.850000
不得人心	-12.850000
不得其所	-12.850000
不得其死	-12.850000
不得劲	-12.850000
不得善终	-12.850000
不得已	-11.775811
不得开交	-12.850000
不得志	-12.850000
不得而知	-13.186256
不得要领	-12.850000
不得违误	-12.850000
不必	-9.753104
不必要	-11.851178
不忍	-11.390379
不忍卒读	-12.850000
不忘宿志	-12.850000
不忘故旧	-12.850000
不忘沟壑	-12.850000
不忙不暴	-12.850000
不快	-11.873698
不忮不求	-12.850000
不念旧恶	-12.850000
不忿	-12.850000
不怀好意	-13.186136
不怎么样	-12.850000
不怕	-10.555741
不急之务	-12.850000
不恤	-12.850000
不恤人言	-12.850000
不恭	-12.850000
不息	-12.850000
不恶而严	-12.850000
不悦	-12.850000
不悱不发	-12.850000
不情之请	-12.850000
不惑	-12.850000
不惑之年	-12.850000
不惜	-11.442840
不惜工本	-12.850000
不惟	-12.850000
不想	-9.850858
不意	-12.850000
不愤不启	-12.850000
不愧	-11.510783
不愧下学	-12.850000
不愧不作	-12.850000
不愧不怍	-12.850000
不愧屋漏	-12.850000
不慌不忙	-13.186184
不慎	-12.850000
不懂装懂	-12.850000
不懈	-12.606303
不成	-10.403337
不成三瓦	-12.850000
不成体统	-12.850000
不成器	-12.850000
不成才	-12.850000
不成文法	-12.850000
不成方圆	-12.850000
不成话	-12.861036
不战而胜	-12.850000
不战而降	-12.850000
不才	-12.850000
不打紧	-12.850000
不打自招	-12.850000
不扬	-12.850000
不抗不卑	-12.850000
不折不扣	-12.850000
不护细行	-12.850000
不报	-12.850000
不拔一毛	-12.850000
不拔之志	-12.850000
不拘	-12.850000
不拘一格	-12.852860
不拘小节	-12.850000
不拘形迹	-12.850000
不拘细节	-12.850000
不拘细行	-12.850000
不择手段	-12.850000
不择生冷	-12.850000
不按君臣	-12.850000
不挑之祖	-12.850000
不挠不屈	-12.850000
不挠不折	-12.850000
不振	-12.850000
不揣冒昧	-12.850000
不揪不採	-12.850000
不揪不睬	-12.850000
不揪不采	-12.850000
不摸头	-12.850000
不擒二毛	-12.850000
不支	-12.850000
不改其乐	-12.850000
不攻自破	-12.850000
不敌	-12.850000
不敏	-12.850000
不教之教	-12.850000
不教而杀	-12.850000
不教而诛	-12.850000
不敢	-8.494991
不敢后人	-12.850000
不敢告劳	-12.850000
不敢当	-12.850000
不敢掠美	-12.850000
不敢旁骛	-12.850000
不敢自专	-12.850000
不敢苟同	-12.850000
不敢造次	-12.850000
不敢问津	-12.850000
不敢高攀	-12.850000
不敬	-12.850000
不文	-12.850000
不文不武	-12.850000
不料	-10.866937
不断	-8.365872
不断如带	-12.850000
不方便	-12.850000
不旋踵	-12.850000
不无	-12.850000
不无小补	-12.850000
不无道理	-13.186365
不日	-12.850000
不日不月	-12.850000
不时	-10.837576
不时之需	-12.850000
不时之须	-12.850000
不明	-10.824220
不明不白	-12.602832
不易	-10.688529
不易一字	-12.850000
不易之典	-12.850000
不易之论	-12.850000
不是	-7.277979
不是味儿	-12.850000
不晓世务	-12.850000
不景气	-12.850000
不智	-12.850000
不暇	-12.850000
不更事	-12.850000
不曾	-10.857284
不服	-11.158188
不服气	-12.850000
不服水土	-12.850000
不期	-11.407069
不期修古	-12.850000
不期而会	-12.850000
不期而同	-12.850000
不期而然	-12.850000
不期而遇	-12.850000
不朽	-12.850000
不来梅	-12.850000
不枉	-12.850000
不果	-12.850000
不染一尘	-12.850000
不栉进士	-12.850000
不根之论	-12.850000
不根之谈	-12.850000
不检	-12.850000
不次之位	-12.850000
不次之迁	-12.850000
不欢而散	-12.850000
不欺屋漏	-12.850000
不欺暗室	-12.850000
不欺闇室	-12.850000
不止	-11.168281
不正	-12.850000
不正之风	-13.186172
不正常	-12.850000
不步人脚	-12.850000
不死不活	-12.850000
不比	-12.850000
不毛	-12.850000
不毛之地	-12.850000
不求甚解	-12.850000
不求闻达	-12.850000
不治	-12.850000
不治之症	-12.850000
不法	-12.850000
不法之徒	-12.850000
不法常可	-12.850000
不洁	-12.850000
不测	-12.850000
不测之忧	-12.850000
不测之祸	-12.850000
不测之罪	-12.850000
不济	-12.017948
不济事	-12.850000
不消	-12.850000
不消说	-12.850000
不满	-10.474282
不灵	-12.850000
不点儿	-12.850000
不然	-11.294077
不熟	-12.850000
不爽	-12.850000
不爽毫发	-12.850000
不爽累黍	-12.850000
不牧之地	-12.850000
不犯	-12.850000
不犯着	-12.850000
不独	-12.850000
不猧不魀	-12.850000
不理	-11.448986
不甘	-12.850000
不甘后人	-12.850000
不甘寂寞	-12.850000
不甘心	-12.850000
不甘示弱	-12.850000
不甘雌伏	-12.850000
不甚	-12.850000
不甚了了	-12.850000
不生不灭	-12.850000
不用	-10.247604
不用说	-12.850000
不由	-11.082466
不由分说	-12.850000
不由得	-9.928627
不由自主	-12.236364
不畅	-12.850000
不畏	-12.433956
不留余地	-12.850000
不疾不徐	-12.850000
不痛不痒	-12.850000
不痴不聋	-12.850000
不瘟不火	-12.850000
不登大雅	-12.850000
不白之冤	-12.850000
不直一文	-12.850000
不直一钱	-12.850000
不相上下	-12.850000
不相为谋	-12.850000
不相干	-11.760414
不相称	-12.850000
不相问闻	-12.850000
不相闻问	-12.850000
不省人事	-12.850000
不着疼热	-12.850000
不着边际	-12.850000
不瞅不睬	-12.850000
不瞒你说	-13.186172
不瞽不聋	-12.850000
不矜不伐	-12.850000
不矜细行	-12.850000
不知	-8.446046
不知丁董	-12.850000
不知不觉	-11.667060
不知世务	-12.850000
不知凡几	-12.850000
不知利害	-12.850000
不知去向	-12.093416
不知头脑	-12.850000
不知好歹	-12.850000
不知寝食	-12.850000
不知就里	-12.850000
不知所云	-12.850000
不知所以	-12.850000
不知所出	-12.850000
不知所厝	-12.850000
不知所可	-12.850000
不知所措	-12.236181
不知所终	-12.850000
不知所言	-12.850000
不知所错	-12.850000
不知死活	-12.850000
不知深浅	-12.850000
不知甘苦	-12.850000
不知疼痒	-12.850000
不知痛痒	-12.850000
不知端倪	-12.850000
不知纪极	-12.850000
不知肉味	-12.850000
不知自爱	-12.850000
不知自量	-12.850000
不知薡蕫	-12.850000
不知起倒	-12.850000
不知轻重	-12.850000
不知进退	-12.850000
不知颠倒	-12.850000
不知高下	-12.850000
不知高低	-12.850000
不破不立	-12.850000
不确	-12.850000
不确定性	-12.602977
不碍	-12.850000
不磷不缁	-12.850000
不祥	-11.775370
不祥之兆	-12.850000
不祧之宗	-12.850000
不祧之祖	-12.850000
不禁	-9.560881
不禁不由	-12.850000
不稂不莠	-12.850000
不稳	-12.850000
不稼不穑	-12.850000
不立文字	-12.850000
不端	-12.850000
不符	-12.850000
不等	-10.811102
不等号	-12.850000
不等式	-12.850000
不算	-10.369234
不管	-9.555558
不管一二	-12.850000
不管不顾	-12.850000
不粘锅	-12.850000
不紧不慢	-12.852852
不约而同	-11.582952
不纯	-12.850000
不经世故	-12.850000
不经之语	-12.850000
不经之说	-12.850000
不经之谈	-12.850000
不经意	-12.853150
不结盟	-12.865286
不绝于耳	-13.186184
不绝如发	-12.850000
不绝如带	-12.850000
不绝如线	-12.850000
不绝如缕	-12.850000
不绝若线	-12.850000
不置可否	-12.852891
不置褒贬	-12.850000
不羁	-12.606466
不羁之才	-12.850000
不羁之民	-12.850000
不羞当面	-12.850000
不習水土	-12.850000
不翼而飞	-12.850000
不老少	-12.850000
不耐	-12.850000
不耐烦	-11.305442
不耻	-12.850000
不耻下问	-12.850000
不耻最后	-12.850000
不肖	-12.850000
不肖子	-12.850000
不肖子孙	-12.850000
不肯	-9.596960
不育	-12.850000
不胜	-11.579563
不胜其任	-12.850000
不胜其烦	-12.850000
不胜其苦	-12.850000
不胜杯杓	-12.850000
不胜枚举	-12.850000
不胜桮杓	-12.850000
不胫而走	-12.850000
不能	-7.572534
不能不	-10.465480
不能自己	-12.850000
不能自已	-12.850000
不能自拔	-12.850000
不脩边幅	-12.850000
不腆之仪	-12.850000
不臣之心	-12.850000
不自在	-12.850000
不自满假	-12.850000
不自禁	-12.602623
不自量	-12.850000
不自量力	-13.186166
不至于	-11.555640
不致	-11.276419
不致于	-12.610264
不舍	-12.850000
不舍昼夜	-12.850000
不舒服	-12.850000
不舞之鹤	-12.850000
不良	-10.578182
不苟	-12.850000
不苟言笑	-13.186196
不若	-12.850000
不茶不饭	-12.850000
不药而愈	-12.850000
不落俗套	-12.850000
不落窠臼	-12.850000
不落边际	-12.850000
不蔓不支	-12.850000
不蔓不枝	-12.850000
不虚此行	-12.850000
不虞	-12.850000
不虞之誉	-12.850000
不行	-9.784625
不衫不履	-12.850000
不衰	-12.850000
不要	-8.508865
不要怕	-12.850000
不要紧	-12.242730
不要脸	-12.414824
不见	-10.400945
不见不散	-12.850000
不见了	-12.850000
不见天日	-12.850000
不见得	-12.253675
不见经传	-12.850000
不见舆薪	-12.850000
不规则	-12.850000
不觉	-10.505081
不觉技痒	-12.850000
不解	-12.245914
不解之仇	-12.850000
不解之缘	-12.850000
不言不语	-12.850000
不言而信	-12.850000
不言而喻	-13.186160
不言而谕	-12.850000
不计	-12.850000
不计其数	-12.852787
不计得失	-12.850000
不让	-10.118747
不记前仇	-12.850000
不记得	-12.850000
不讳	-12.850000
不讳之朝	-12.850000
不讳之路	-12.850000
不讳之门	-12.850000
不许	-10.240697
不论	-10.144180
不论如何	-12.850000
不论是	-12.190090
不识一丁	-12.850000
不识不知	-12.850000
不识东家	-12.850000
不识之无	-12.850000
不识大体	-12.850000
不识好歹	-12.602842
不识局面	-12.850000
不识抬举	-12.850000
不识时务	-12.850000
不识泰山	-12.850000
不识起倒	-12.850000
不识马肝	-12.850000
不识高低	-12.850000
不该	-10.607873
不详	-12.080300
不语	-11.055861
不谋同辞	-12.850000
不谋而合	-12.850000
不谋而同	-12.850000
不象	-12.850000
不象话	-12.850000
不负众望	-12.850000
不负重望	-12.850000
不败	-11.717275
不败之地	-12.850000
不贪为宝	-12.850000
不费之惠	-12.850000
不赏之功	-12.850000
不赖	-12.850000
不赞一词	-12.850000
不起	-12.850000
不起眼	-12.410816
不起诉	-12.850000
不越雷池	-12.850000
不足	-9.251480
不足为凭	-12.850000
不足为奇	-12.852830
不足为意	-12.850000
不足为据	-12.850000
不足为法	-12.850000
不足为训	-12.850000
不足介意	-12.850000
不足以	-12.196202
不足取	-12.850000
不足挂齿	-12.850000
不足轻重	-12.850000
不足道	-12.850000
不足齿数	-12.850000
不轨	-12.850000
不轨之徒	-12.850000
不轻然诺	-12.850000
不辍	-12.850000
不辞	-12.850000
不辞劳苦	-12.850000
不辞而别	-12.852847
不辟斧钺	-12.850000
不辨真伪	-12.850000
不辨菽粟	-12.850000
不辨菽麦	-12.850000
不辩菽麦	-12.850000
不辱使命	-12.850000
不迁之庙	-12.850000
不过	-8.231318
不过如此	-12.850000
不过尔尔	-12.850000
不过意	-12.850000
不近人情	-12.850000
不近道理	-12.850000
不进则退	-12.850000
不远	-11.136507
不远万里	-12.850000
不远千里	-12.850000
不远处	-11.448666
不违农时	-12.850000
不迭	-12.850000
不追既往	-12.850000
不适	-12.023146
不适合	-12.850000
不逊	-12.850000
不透明	-12.850000
不通	-11.418605
不通水火	-12.850000
不逞	-12.850000
不逞之徒	-12.850000
不速之客	-12.850000
不遂	-12.850000
不遇	-12.850000
不遑	-12.850000
不遑启处	-12.850000
不遑宁处	-12.850000
不遑宁息	-12.850000
不遑暇食	-12.850000
不遑枚举	-12.850000
不道德	-12.850000
不遗余力	-12.850000
不遗寸长	-12.850000
不遗巨细	-12.850000
不避	-12.850000
不避斧钺	-12.850000
不避水火	-12.850000
不避汤火	-12.850000
不避艰险	-12.850000
不郎不秀	-12.850000
不配	-12.850000
不重要	-12.850000
不锈钢	-12.602994
不错	-9.262509
不问	-12.850000
不问不闻	-12.850000
不问皂白	-12.850000
不间不界	-12.850000
不闻不问	-13.186148
不阴不阳	-12.850000
不随以止	-12.850000
不难	-10.812733
不雅	-12.850000
不露圭角	-12.850000
不露声色	-12.850000
不露形色	-12.850000
不露神色	-12.850000
不露锋芒	-12.850000
不露锋铓	-12.850000
不韪	-12.850000
不须	-12.850000
不顾	-11.069660
不顾一切	-12.403901
不顾前后	-12.850000
不顾大局	-12.850000
不顾死活	-12.850000
不食之地	-12.850000
不食周粟	-12.850000
不食烟火	-12.850000
不食马肝	-12.850000
不饥不寒	-12.850000
不饮盗泉	-12.850000
不骄不躁	-12.850000
不齐	-12.850000
不齿	-12.850000
不齿于人	-12.850000
不龟手药	-12.850000
与	-6.016654
与世俯仰	-12.850000
与世偃仰	-12.850000
与世推移	-12.850000
与世无争	-12.850000
与世沉浮	-12.850000
与世浮沉	-12.850000
与世长辞	-12.850000
与世隔绝	-12.850000
与人为善	-12.850000
与众不同	-11.857233
与会	-11.179415
与共	-12.850000
与其	-10.111474
与其说	-12.442199
与受同科	-12.850000
与否	-12.101722
与日俱增	-12.850000
与时偕行	-12.850000
与时推移	-12.850000
与时消息	-12.850000
与此同时	-10.227397
与此相反	-12.850000
与民同乐	-12.850000
与民更始	-12.850000
与民除害	-12.850000
与物无忤	-12.850000
与物无竞	-12.850000
与狐谋皮	-12.850000
与虎添翼	-12.850000
与虎谋皮	-12.850000
与赛	-12.850000
与门	-12.850000
与闻	-12.850000
与非	-12.095015
丐	-11.138264
丐帮	-10.910321
丑	-10.056954
丑化	-12.850000
丑声远播	-12.850000
丑态毕露	-12.850000
丑恶	-12.093987
丑星	-12.850000
丑相	-12.850000
丑类恶物	-12.850000
丑行	-12.850000
丑角	-12.850000
丑闻	-12.403968
丑陋	-11.968323
专	-9.107324
专业	-8.401290
专业化	-12.627168
专业性	-12.654234
专业教育	-12.850000
专业银行	-12.850000
专事	-12.428108
专人	-11.950990
专任	-12.413966
专供	-12.850000
专修科	-12.850000
专列	-12.857647
专利	-11.042091
专利费	-12.853982
专制	-11.090388
专制主义	-13.187004
专区	-11.513357
专卖店	-12.852821
专号	-12.850000
专司	-12.606676
专名号	-12.850000
专员	-12.096960
专员公署	-12.850000
专场	-12.850000
专家	-8.635363
专差	-12.850000
专座	-12.850000
专心	-11.869153
专心一致	-12.850000
专心致志	-13.186220
专指	-12.850000
专政	-11.041499
专有	-12.850000
专有名词	-12.850000
专机	-12.612752
专柜	-12.850000
专栏	-12.853991
专栏作家	-12.850000
专案组	-12.402897
专横	-12.857348
专横跋扈	-12.850000
专欲难成	-12.850000
专注	-11.506776
专版	-12.850000
专用	-11.448976
专科	-11.052424
专科学校	-11.583388
专科生	-12.850000
专程	-11.758290
专稿	-12.850000
专管	-12.242975
专精覃思	-12.850000
专线	-10.911730
专职	-12.403499
专营	-12.607872
专著	-11.762697
专论	-12.850000
专责	-12.854415
专车	-12.850000
专辑	-12.603406
专长	-12.850000
专门	-9.083488
专门家	-12.850000
专项	-11.309491
专题	-10.075154
且	-8.691391
且住为佳	-12.850000
且慢	-11.858465
且末	-12.850000
且说	-11.648006
且食蛤蜊	-12.850000
丕	-12.402795
世	-8.581619
世上	-10.410593
世事	-12.656925
世交	-12.867758
世亲	-12.850000
世人	-11.023920
世仇	-12.850000
世代	-11.760845
世代相传	-11.857222
世传	-12.850000
世伯	-12.850000
世俗	-11.435268
世俗之见	-12.850000
世兄	-12.406386
世博会	-11.968338
世子	-11.992957
世宗	-12.408293
世家	-12.101255
世态炎凉	-12.850000
世掌丝纶	-12.850000
世济其美	-13.186166
世界	-7.579861
世界卫生组织	-13.186202
世界反法西斯战争	-12.602852
世界各地	-12.103398
世界和平理事会	-13.186187
世界大战	-12.238183
世界市场	-12.463625
世界性	-12.315654
世界旅游组织	-12.852845
世界杯	-10.360335
世界观	-12.850000
世界语	-12.850000
世系	-12.869371
世纪	-8.098459
世纪末	-11.510320
世袭	-11.247343
世贸组织	-12.852847
世钧道	-12.402824
世锦赛	-12.402817
世间	-10.956496
世面	-12.251444
世风	-12.850000
世风日下	-12.850000
丘	-10.128689
丘处机	-11.434614
丘群望	-13.186175
丘陵	-10.312852
丘陵区	-12.861370
丙	-11.305422
丙丁	-12.850000
丙种射线	-12.850000
丙纶	-12.850000
业	-8.663437
业业矜矜	-12.850000
业主	-11.964499
业余	-11.373114
业余教育	-12.850000
业内	-12.430638
业内人士	-12.403342
业务	-9.006214
业大	-12.850000
业已	-12.397576
业绩	-10.568185
丛	-10.759593
丛书	-11.858517
丛山峻岭	-12.850000
丛林	-11.368418
丛生	-12.406084
丛轻折轴	-12.850000
丛雀渊鱼	-12.850000
东	-7.765691
东三省	-12.852942
东亚	-11.039493
东交民巷	-11.246614
东京	-10.060337
东京大学	-12.850000
东侧	-10.833512
东倒西歪	-13.186160
东冲西决	-12.850000
东冲西撞	-12.850000
东冲西突	-12.850000
东劳西燕	-12.850000
东北	-9.393321
东北军	-12.101889
东北地区	-11.864784
东北大学	-11.307967
东北虎	-12.850000
东北角	-12.238658
东北部	-11.001149
东区	-12.850000
东升	-11.438108
东升镇	-12.603585
东华	-12.850000
东华门	-12.402855
东南	-9.740168
东南之宝	-12.850000
东南之秀	-12.850000
东南之美	-12.850000
东南亚	-10.597983
东南半壁	-12.850000
东南大学	-12.862094
东南欧	-12.850000
东南竹箭	-12.850000
东南西北	-12.855676
东南部	-10.999061
东南雀飞	-12.850000
东台	-12.850000
东吴	-11.843194
东坡	-11.759181
东坡肉	-12.853324
东城	-11.580709
东墙处子	-12.850000
东头	-12.850000
东夷	-12.896279
东奔西向	-12.850000
东奔西撞	-12.850000
东奔西窜	-12.850000
东奔西走	-13.186220
东奔西跑	-12.850000
东奔西逃	-12.850000
东安门	-12.602900
东宫	-12.029868
东家	-12.850000
东家效颦	-12.850000
东家西舍	-12.850000
东岳	-11.859741
东岸	-11.584876
东州	-12.650914
东差西误	-12.850000
东巴	-12.420420
东市朝衣	-12.850000
东床姣婿	-12.850000
东床择对	-12.850000
东张西望	-12.852839
东张西觑	-12.850000
东征	-11.972547
东扯西拉	-12.850000
东扯西拽	-12.850000
东扶西倒	-12.850000
东抹西涂	-12.850000
东拉西扯	-12.850000
东挨西撞	-12.850000
东挪西撮	-12.850000
东撙西节	-12.850000
东支西吾	-12.850000
东方	-9.553314
东方学	-12.829843
东方将白	-12.850000
东方文化	-12.850000
东晋	-11.494807
东暖阁	-13.186630
东望西观	-12.850000
东朝西	-12.852843
东林	-11.839674
东林党	-12.236823
东横西倒	-12.850000
东欧	-11.139840
东正教	-12.852869
东歪西倒	-12.850000
东汉	-10.250568
东洋	-12.611073
东洋大海	-12.850000
东洋车	-12.850000
东流西上	-12.850000
东流西落	-12.850000
东海	-11.258743
东海岸	-12.405822
东涂西抹	-12.850000
东渐于海	-12.850000
东渡	-12.862016
东湖	-10.339410
东湖开发区	-13.187293
东湖新技术开发区	-12.093315
东湖高新技术开发区	-12.402397
东猜西揣	-12.850000
东猜西疑	-12.850000
东盟	-12.405506
东窗事发	-12.850000
东箭南金	-12.850000
东经	-10.620915
东至	-12.005685
东荆河	-13.186136
东莞	-12.850000
东萨摩亚	-12.850000
东藏西躲	-12.850000
东街	-12.292092
东西	-8.158801
东西南北	-12.850000
东西南朔	-12.850000
东西向	-12.162462
东西方	-12.428099
东西湖区	-11.968554
东观之殃	-12.850000
东观续史	-12.850000
东观西望	-12.850000
东谈西说	-12.850000
东趋西步	-12.850000
东跑西颠	-12.850000
东路	-11.416110
东踅西倒	-12.850000
东躲西藏	-12.850000
东躲西跑	-12.850000
东边	-11.317296
东连吴	-12.402836
东道	-11.777121
东部	-9.466372
东量西折	-12.850000
东长安街	-12.404886
东门	-11.689603
东阿	-12.850000
东零西散	-12.850000
东零西落	-12.850000
东非	-12.644442
东非大裂谷	-13.186172
东面	-12.412896
东风	-10.904493
东风人面	-12.850000
东风入律	-12.850000
东风化雨	-12.850000
东风汽车公司	-12.852813
东风浩荡	-12.850000
东风过耳	-12.850000
东风马耳	-12.850000
东飘西泊	-12.850000
东食西宿	-12.850000
东鳞西爪	-12.850000
东鸣西应	-12.850000
丝	-9.292013
丝丝缕缕	-13.186178
丝发之功	-12.850000
丝恩发怨	-12.850000
丝棉	-12.850000
丝毫	-10.187023
丝瓜络	-12.850000
丝织	-12.918732
丝织品	-13.186449
丝绸	-11.857313
丝绸之路	-12.402869
丞	-11.959991
丞相	-10.761504
丢	-9.837043
丢三拉四	-12.850000
丢三落四	-12.850000
丢下	-12.430129
丢卒保车	-12.850000
丢失	-11.858183
丢面子	-12.850000
丢魂丧胆	-12.850000
两	-7.065027
两万	-11.874132
两三天	-12.241342
两三年	-12.624934
两下	-11.325763
两世为人	-12.850000
两个	-7.733578
两个凡是	-11.859321
两代	-10.489203
两件	-11.775525
两会	-11.479983
两位	-9.859054
两侧	-9.561336
两便	-12.850000
两倍	-12.252741
两全其美	-12.850000
两具	-12.418078
两分法	-12.850000
两千	-11.645846
两口儿	-13.186251
两口子	-12.850000
两句	-11.146998
两只	-10.288754
两可	-12.850000
两叶掩目	-12.850000
两名	-10.447374
两地	-11.376232
两块	-11.518930
两声	-11.399402
两处	-11.907331
两天	-10.044971
两头	-11.571297
两头三绪	-12.850000
两头三面	-12.850000
两头和番	-12.850000
两头白面	-12.850000
两头蛇	-12.850000
两家	-11.321191
两尺	-12.408362
两层	-11.380399
两届	-11.253588
两岸	-9.696714
两幅	-12.413697
两年	-9.855340
两广	-12.631180
两座	-10.731529
两张	-12.177977
两张皮	-12.850000
两当	-12.850000
两性	-11.292920
两性关系	-12.850000
两性生殖	-12.850000
两扇	-12.415101
两手	-11.730387
两手空空	-13.186178
两支	-11.378325
两方	-11.898427
两旁	-11.000026
两晋	-12.870574
两条	-10.234386
两极	-12.283945
两极分化	-12.850000
两枚	-11.977038
两架	-12.617649
两栖	-11.041478
两栖动物	-12.850000
两栖类	-12.850000
两样	-12.872444
两根	-11.990240
两次	-9.750978
两次三番	-12.850000
两步	-11.769929
两段	-12.159969
两河	-12.118460
两派	-11.707814
两湖	-11.263547
两点	-11.564411
两点论	-12.850000
两片	-12.451561
两班	-12.641272
两用	-11.955999
两用人才	-12.850000
两盏	-12.861275
两相情原	-12.850000
两相情愿	-12.850000
两眼	-11.888593
两瞽相扶	-12.850000
两种	-9.272533
两端	-11.678879
两类	-11.102335
两级	-11.525025
两组	-11.869148
两翼	-11.587236
两者	-9.907144
两耳塞豆	-12.850000
两肋插刀	-12.850000
两脚居间	-12.850000
两艘	-12.872805
两虎相斗	-12.850000
两行	-12.184323
两袖清风	-12.850000
两豆塞耳	-12.850000
两辆	-12.617728
两边	-10.671263
两边倒	-12.850000
两遍	-12.413118
两道	-11.139883
两部	-12.270603
两重天	-12.850000
两队	-12.144933
两阵	-12.420462
两院	-11.003607
两院制	-10.659142
两难	-12.850000
两面	-10.739064
两项	-11.688433
两鬓	-12.855762
两鼠斗穴	-12.850000
严	-9.806837
严丝合缝	-12.850000
严严实实	-13.186160
严义埙	-12.236154
严令	-12.850000
严刑	-12.603750
严加	-12.406807
严厉	-10.724554
严处	-12.850000
严家饿隶	-12.850000
严密	-11.247089
严寒	-12.403814
严峻	-10.794745
严惩	-12.602917
严惩不贷	-12.850000
严整	-11.857977
严明	-12.861766
严晓频	-12.852843
严智泽	-13.186172
严查	-12.850000
严格	-9.479179
严正	-12.583850
严气正性	-12.850000
严父	-12.850000
严禁	-11.757527
严肃	-10.831792
严肃音乐	-12.850000
严苛	-12.850000
严谨	-11.434703
严酷	-12.853133
严重	-8.750037
严重者	-12.257616
严防	-12.604729
严阵以待	-12.852813
严陈以待	-12.850000
丧	-10.431585
丧乱	-12.850000
丧事	-12.850000
丧亡	-12.850000
丧假	-12.850000
丧偶	-12.850000
丧命	-12.850000
丧天害理	-12.850000
丧失	-10.659067
丧失殆尽	-12.850000
丧家	-12.850000
丧家之犬	-12.850000
丧家之狗	-12.850000
丧家犬	-12.850000
丧尽天良	-12.850000
丧师辱国	-12.850000
丧心病狂	-12.850000
丧志	-12.850000
丧明之痛	-12.850000
丧服	-12.850000
丧权	-12.850000
丧权辱国	-12.850000
丧气	-12.858826
丧气话	-12.850000
丧生	-12.850000
丧礼	-12.850000
丧胆	-12.850000
丧胆亡魂	-12.850000
丧胆游魂	-12.850000
丧胆销魂	-12.850000
丧葬	-13.186992
丧葬费	-12.850000
丧身	-12.850000
丧身失节	-12.850000
丧钟	-12.850000
丧门	-12.850000
丧门星	-12.850000
丧门神	-12.850000
丧魂失魄	-12.850000
丧魂落魄	-12.850000
丨	-14.686172
个	-6.274498
个个	-10.691566
个中	-12.850000
个中妙趣	-12.850000
个中滋味	-12.850000
个人	-8.613306
个人主义	-12.850000
个人财产	-12.850000
个位	-12.850000
个体	-10.203046
个体户	-12.850000
个体经济	-12.850000
个儿	-11.856883
个别	-9.858582
个头	-12.073406
个头儿	-12.850000
个子	-12.850000
个性	-10.934764
个性化	-12.404518
个把	-12.850000
个旧	-12.850000
个旧市	-12.850000
个案	-12.850000
个股	-10.972992
丫	-11.665214
丫头	-10.167570
丫杈	-12.850000
丫环	-12.236366
丫鬟	-11.857210
中	-5.498921
中上层	-12.850000
中下旬	-12.850000
中下游	-11.313731
中专	-11.363026
中专生	-12.850000
中世纪	-11.287767
中东	-10.833245
中书省	-11.666381
中亚	-11.084524
中产	-12.850000
中产阶级	-11.968336
中介	-11.674703
中介人	-12.850000
中伏	-12.850000
中伤	-12.850000
中低档	-12.850000
中保	-12.850000
中共	-9.717383
中共上海市委	-13.186172
中共中央	-9.509028
中共中央政治局	-12.853471
中关村	-12.602865
中兴	-11.407946
中冓之言	-12.850000
中军	-11.829807
中分	-12.850000
中医	-11.316317
中医师	-12.850000
中医药	-12.850000
中医药大学	-12.236195
中医院	-12.850000
中午	-10.798332
中华	-10.094224
中华人民共和国	-8.721505
中华人民共和国中央人民政府	-12.605071
中华人民共和国中央军事委员会	-10.248241
中华人民共和国全国人民代表大会	-12.612199
中华人民共和国国务院	-10.954433
中华人民共和国宪法	-10.996708
中华全国总工会	-13.186136
中华和钟	-12.852830
中华民国	-11.040848
中华民族	-10.227737
中华苏维埃共和国	-12.852847
中华门	-11.090970
中华鲟	-11.434611
中南海	-12.432625
中南财经政法大学	-11.757202
中南部	-10.851076
中卷	-12.850000
中原	-10.153182
中原地区	-12.863776
中原逐鹿	-12.850000
中古	-12.850000
中叶	-10.813533
中号	-12.850000
中和	-12.850000
中国	-6.203095
中国人	-12.850000
中国人民大学	-13.186491
中国人民志愿军	-12.852867
中国人民政治协商会议	-11.246622
中国人民解放军	-10.794518
中国人民解放军军事科学院	-12.852864
中国人民银行	-12.402872
中国共产主义青年团	-12.852817
中国共产党	-9.238830
中国共产党中央委员会	-12.236392
中国历史博物馆	-11.582973
中国台湾	-11.615357
中国国民党	-12.146937
中国地质大学	-11.582973
中国外交部	-12.465288
中国女队	-12.095495
中国字	-12.850000
中国工人	-12.850000
中国政府	-10.760175
中国日报	-12.418360
中国民主政团同盟	-12.402827
中国海	-12.850000
中国男篮	-12.854498
中国画	-12.850000
中国科学院	-11.510251
中国科学院自然科学史研究所	-12.852835
中国移动	-12.264984
中国证监会	-12.402833
中国话	-12.850000
中国象棋	-12.850000
中国足协	-11.969699
中国通	-12.850000
中国队	-10.453272
中国青年	-12.850000
中国革命博物馆	-11.857219
中土	-11.932705
中场	-12.850000
中型	-11.779213
中堂	-12.354193
中外	-10.434020
中外合璧	-12.850000
中外合资	-12.402946
中央	-8.162941
中央乐团	-13.186769
中央书记处	-12.852766
中央人民政府	-10.093898
中央人民政府政务院	-13.186214
中央军事委员会	-11.666128
中央军委	-11.666519
中央委员	-11.669142
中央委员会	-11.378855
中央局	-12.413822
中央政府	-12.113813
中央政治局	-11.583259
中央政治局常委	-12.602910
中央电视台	-12.237151
中央研究院	-12.603991
中央红军	-12.238848
中央纪律检查委员会	-12.852839
中央美术学院	-12.852817
中央集权	-11.857199
中央顾问委员会	-12.852843
中奖	-12.850000
中子	-11.252793
中子星	-12.899771
中学	-8.970369
中宣部	-11.968331
中密度	-10.920961
中封	-12.850000
中将	-11.052955
中小	-11.469508
中小企业	-11.435385
中小型	-12.850000
中小城市	-12.606988
中小学	-11.028548
中层	-11.849952
中层干部	-12.850000
中山	-10.776875
中山公园	-10.995444
中山堂	-11.757605
中山大学	-12.605609
中山市	-12.861084
中山路	-12.422087
中常	-12.850000
中幡	-12.850000
中年人	-11.755360
中府	-12.850000
中度	-12.850000
中庸之道	-12.850000
中弹	-12.850000
中彩	-12.850000
中微子	-12.402923
中心	-7.947620
中心摇摇	-12.850000
中性	-11.822780
中成药	-12.603018
中技	-12.850000
中招	-12.850000
中指	-11.597390
中提琴	-13.186184
中文	-10.739582
中断	-11.274665
中新世	-13.186678
中新社	-12.402938
中新网	-12.236385
中方	-10.438574
中日	-11.553278
中旬	-11.306782
中星	-12.359690
中晚期	-12.424574
中暑	-12.850000
中服	-12.850000
中期	-10.441914
中极	-12.850000
中枢	-11.309368
中枢神经	-12.853103
中标	-12.850000
中档	-12.850000
中楷	-12.850000
中欧	-12.450681
中段	-11.753727
中毒	-10.773670
中法	-12.850000
中波	-12.850000
中洲	-11.223882
中流一壶	-12.850000
中流击楫	-12.850000
中流底柱	-12.850000
中流砥柱	-11.968324
中游	-10.906212
中点	-12.850000
中牟	-12.850000
中班	-12.850000
中生代	-13.186383
中的	-12.850000
中科院	-12.852908
中程	-12.850000
中稻	-12.850000
中立不倚	-12.850000
中端	-12.850000
中等	-10.602142
中等教育	-12.858756
中策	-12.850000
中篇小说	-12.852821
中级	-11.166142
中纺	-10.386125
中线	-12.150330
中组部	-13.186316
中缝	-12.850000
中美洲	-12.256417
中耕	-12.850000
中耳	-12.850000
中耳炎	-12.850000
中草药	-12.850000
中药	-11.230732
中药店	-12.850000
中药房	-12.850000
中药材	-12.850000
中行	-12.850000
中表	-12.850000
中西合璧	-12.850000
中西部	-12.019238
中计	-12.850000
中词	-12.850000
中路	-11.310344
中转站	-13.186449
中轴线	-11.191061
中辍	-12.850000
中途	-11.383119
中道	-12.850000
中道而废	-12.850000
中部	-9.643903
中都	-12.850000
中锋	-12.850000
中长	-12.850000
中长期	-12.850000
中长跑	-12.850000
中间	-9.233377
中间体	-12.612103
中队	-11.477252
中雪	-12.850000
中青旅	-12.852951
中非	-12.850000
中靶	-12.850000
中风	-12.850000
中风瘫痪	-12.850000
中餐	-12.850000
中饭	-12.850000
中饱	-12.850000
中饱私囊	-12.850000
中馈乏人	-12.850000
中馈犹虚	-12.850000
中高档	-12.850000
中黄	-12.850000
丰	-9.841121
丰产	-11.858359
丰亨豫大	-12.850000
丰功盛烈	-12.850000
丰功硕德	-12.850000
丰厚	-12.404051
丰县	-12.866533
丰取刻与	-12.850000
丰姿冶丽	-12.850000
丰姿绰约	-12.850000
丰富	-8.647401
丰富多彩	-12.402852
丰富多采	-12.850000
丰屋之过	-12.850000
丰屋蔀家	-12.850000
丰度翩翩	-12.850000
丰收	-12.238518
丰标不凡	-12.850000
丰歉	-12.850000
丰沛	-12.602920
丰满	-12.405755
丰盛	-12.855104
丰硕	-12.850000
丰神绰约	-12.850000
丰美	-12.609389
丰肌弱骨	-12.850000
丰肌秀骨	-12.850000
丰草长林	-12.850000
丰衣足食	-12.850000
丰豫之	-12.852821
丰采	-12.850000
串	-10.479614
串亲戚	-12.850000
串亲访友	-12.850000
串供	-12.850000
串味儿	-12.850000
串并联	-12.850000
串戏	-12.850000
串案	-12.850000
串珠	-12.093668
串联	-12.854147
临	-9.553674
临了	-12.850000
临别	-12.931947
临别赠言	-12.850000
临别赠语	-12.850000
临危不惧	-12.850000
临危不挠	-12.850000
临危不顾	-12.850000
临场	-12.850000
临头	-12.620833
临安	-11.872246
临崖勒马	-12.850000
临帖	-12.850000
临床	-10.040028
临摹	-13.186714
临敌易将	-12.850000
临文不讳	-12.850000
临时	-9.498232
临时性	-12.850000
临朝	-12.861002
临机应变	-12.850000
临死	-11.671183
临汾	-12.602862
临沂	-12.602970
临深履薄	-12.850000
临潼斗宝	-12.850000
临界	-12.238592
临界角	-12.850000
临空	-12.850000
临终	-12.106919
临行	-12.850000
临财不苟	-12.850000
临走	-12.418458
临近	-11.436893
临阵磨刀	-12.850000
临阵磨枪	-12.850000
临难	-12.850000
临难不恐	-12.850000
临难不惧	-12.850000
临难不避	-12.850000
临难无慑	-12.850000
临难苟免	-12.850000
临难铸兵	-12.850000
临风	-12.850000
临风对月	-12.850000
丶	-14.686147
丸	-10.511060
丸子	-12.850000
丸散膏丹	-12.850000
丸泥封关	-12.850000
丹	-9.569580
丹东	-12.865717
丹书铁券	-12.850000
丹书铁契	-12.850000
丹凤朝阳	-12.850000
丹参	-12.850000
丹尼尔	-12.852864
丹心碧血	-12.850000
丹毒	-12.850000
丹江口	-11.856293
丹江口市	-12.604690
丹江口水库	-12.602869
丹田	-12.405858
丹铅甲乙	-12.850000
丹青	-12.405122
丹青不渝	-12.850000
丹麦	-11.138344
丹麦队	-12.404089
为	-5.381294
为丛驱雀	-12.850000
为主	-8.523322
为之语塞	-12.850000
为了	-8.096578
为人	-12.850000
为人作嫁	-12.850000
为人师表	-12.850000
为人说项	-12.850000
为什么	-8.910393
为仁不富	-12.850000
为伍	-12.850000
为何	-10.188849
为准	-12.033591
为啥	-12.850000
为善最乐	-12.850000
为国为民	-12.850000
为国捐躯	-12.850000
为好成歉	-12.850000
为害	-12.150022
为富不仁	-12.850000
为小失大	-12.850000
为山止篑	-12.850000
为德不卒	-12.850000
为德不终	-12.850000
为恶不悛	-12.850000
为患	-12.850000
为所欲为	-12.236176
为政	-11.870537
为数	-11.472599
为数不多	-12.602873
为时	-12.850000
为时过早	-12.850000
为期	-11.482064
为期不远	-12.850000
为止	-10.418663
为此	-12.850000
为民父母	-12.850000
为民请命	-12.850000
为民除害	-12.850000
为法自弊	-12.850000
为渊驱鱼	-12.850000
为生	-11.711282
为的是	-11.698572
为着	-12.850000
为虎作伥	-12.850000
为虎傅翼	-12.850000
为虎添翼	-12.850000
为虺弗摧	-12.850000
为蛇添足	-12.850000
为蛇画足	-12.850000
为裘为箕	-12.850000
为辅	-12.630047
为重	-11.596017
为限	-12.850000
为难	-11.839879
为非作恶	-12.850000
为非作歹	-12.850000
为首	-10.296933
为鬼为蜮	-12.850000
主	-7.928511
主上	-12.850000
主义	-9.324105
主义者	-11.747161
主产	-12.850000
主人	-9.822154
主人家	-12.850000
主仆	-12.850000
主从	-12.850000
主任	-8.414403
主任委员	-12.410426
主体	-10.104077
主儿	-12.266668
主公	-12.443988
主创	-12.850000
主创人员	-12.850000
主力	-10.139050
主办	-11.144122
主动	-9.793228
主动性	-12.869407
主动脉	-12.850000
主句	-12.850000
主场	-10.729480
主婚人	-12.850000
主存储器	-13.186148
主客观	-12.850000
主客颠倒	-12.850000
主宰	-12.604848
主家	-12.850000
主导	-10.759772
主将	-11.937614
主少国疑	-12.850000
主峰	-10.911794
主帅	-11.858152
主席	-8.074512
主席台	-11.596014
主席团	-10.509809
主干	-12.647513
主干线	-12.850000
主张	-9.104251
主心骨	-12.850000
主意	-9.760505
主战	-11.704291
主战场	-12.850000
主打	-12.850000
主持	-9.345944
主持人	-10.449350
主攻	-11.857089
主攻手	-12.850000
主教	-12.101331
主教练	-11.384935
主料	-12.028288
主旋律	-11.968733
主旨	-12.906129
主机	-11.564198
主权	-10.462236
主枝	-12.850000
主桥	-12.850000
主河道	-12.850000
主治	-12.552629
主治医生	-12.850000
主流	-11.213378
主渠道	-12.850000
主演	-11.307513
主祭	-12.850000
主管	-9.975823
主线	-12.426573
主编	-11.587145
主考	-12.797347
主营	-12.850000
主营业务	-12.852821
主裁判	-13.187932
主要	-7.088123
主要矛盾	-12.850000
主见	-12.850000
主观	-10.954261
主观世界	-12.850000
主观主义	-12.853544
主观性	-12.850000
主角	-11.511060
主语	-12.850000
主调	-12.850000
主责	-12.850000
主轴	-12.850000
主顾	-12.864934
主题	-10.228564
主题词	-12.850000
主食	-12.850000
丽	-9.894073
丽人	-12.850000
丽句清词	-12.850000
丽句清辞	-12.850000
丽日	-12.850000
丽水	-12.850000
丽藻春葩	-12.850000
丽质	-12.850000
丽都	-12.850000
举	-8.944407
举不胜举	-12.850000
举世	-12.987846
举世混浊	-12.850000
举世皆知	-12.850000
举世瞩目	-13.186124
举世闻名	-12.402851
举人	-11.665999
举例	-12.238016
举例发凡	-12.850000
举出	-12.276168
举办	-9.627492
举动	-11.249654
举十知九	-12.850000
举发	-12.850000
举国上下	-12.850000
举国若狂	-12.850000
举子	-12.430203
举家	-12.850000
举手	-12.108999
举手相庆	-12.850000
举手礼	-12.850000
举报	-11.587714
举措	-11.583465
举措不当	-12.850000
举措失当	-12.850000
举杯	-12.395953
举案齐眉	-12.850000
举棋不定	-12.850000
举棋若定	-12.850000
举止	-12.095091
举止不凡	-12.850000
举止大方	-12.850000
举止自若	-12.850000
举步生风	-12.850000
举目无亲	-12.850000
举荐	-12.403051
举行	-8.199330
举要	-12.850000
举要删芜	-12.850000
举贤任能	-12.850000
举贤使能	-12.850000
举足轻重	-12.850000
举重	-12.850000
举重若轻	-12.850000
举重队	-13.186208
乃	-9.426339
乃心王室	-12.850000
乃是	-10.734963
乃至	-10.732067
乃至于	-12.850000
乃蛮	-13.187456
久	-8.822391
久久	-12.129711
久久不忘	-12.850000
久仰	-12.854181
久假不归	-12.850000
久别	-12.850000
久别重逢	-13.186184
久历风尘	-12.850000
久安长治	-12.850000
久悬不决	-12.850000
久拖不决	-12.850000
久留	-12.610034
久经沙场	-12.850000
久经风霜	-12.850000
久美	-12.418159
久而久之	-13.186202
久要不忘	-12.850000
久负盛名	-13.186184
久远	-12.862303
久违	-12.853774
久长	-12.850000
久闻大名	-12.850000
乇	-13.686192
么	-8.649570
义	-8.735719
义不反顾	-12.850000
义不取容	-12.850000
义不容辞	-13.186154
义不生财	-12.850000
义兄	-12.689653
义军	-10.630232
义务	-10.248199
义务兵	-12.850000
义务工	-12.850000
义务教育	-11.369113
义勇	-12.604679
义勇军	-11.968617
义和团	-10.758746
义和团运动	-12.094546
义和拳	-12.850000
义士	-12.606585
义女	-12.850000
义愤	-12.854424
义愤填胸	-12.850000
义愤填膺	-12.236144
义无旋踵	-12.850000
义正词严	-12.602862
义正辞严	-12.850000
义正辞约	-12.850000
义气	-11.953372
义气相投	-12.850000
义浆仁粟	-12.850000
义父	-12.238708
义薄云天	-12.850000
义行	-12.850000
义词	-12.609789
义重恩深	-12.850000
之	-6.076804
之一	-8.042383
之上	-9.968854
之下	-9.179616
之中	-8.678619
之二	-11.845151
之内	-10.271371
之前	-9.007056
之后	-8.072246
之外	-9.268551
之所以	-9.777715
之极	-12.850000
之死不渝	-12.850000
之江	-11.301608
之用	-11.890404
之类	-10.125919
之间	-7.910135
之际	-10.041216
之首	-12.850000
乌	-9.584439
乌云	-11.668056
乌云其木格	-12.236179
乌什	-13.187389
乌克兰	-11.246622
乌兰	-12.855195
乌兰巴托	-12.402836
乌兹别克	-13.186166
乌兹别克斯坦	-13.186166
乌压压	-12.850000
乌合之众	-12.850000
乌天黑地	-12.850000
乌头	-12.875917
乌头马角	-12.850000
乌尔	-12.858297
乌帽红裙	-12.850000
乌拉	-12.850000
乌拉圭	-12.852821
乌拉尔	-12.236140
乌拉草	-12.850000
乌斯	-12.317239
乌日图	-12.402827
乌有	-12.850000
乌有先生	-12.850000
乌木	-12.858826
乌梢蛇	-12.850000
乌溜溜	-12.850000
乌烟瘴气	-12.602837
乌白马角	-12.850000
乌纱帽	-13.186208
乌苏里江	-12.602849
乌衣子弟	-12.850000
乌迪内	-12.852830
乌骨鸡	-12.850000
乌鱼	-12.863859
乌鲁木齐	-12.602849
乌鸦	-12.236179
乌黑	-12.240275
乌龙驹	-12.852804
乌龟	-11.666551
乍	-10.995342
乍暖还寒	-12.850000
乍看	-12.850000
乎	-10.163387
乎乎	-12.402925
乏	-11.576241
乏力	-12.854103
乏味	-12.853237
乏术	-12.850000
乏累	-12.850000
乐	-8.821574
乐不可支	-12.850000
乐不可极	-12.850000
乐不可言	-12.850000
乐不思蜀	-12.850000
乐不极盘	-12.850000
乐业	-12.850000
乐业安居	-12.850000
乐事	-12.850000
乐事劝功	-12.850000
乐于	-12.141535
乐亭	-12.850000
乐亭县	-12.850000
乐以忘忧	-12.850000
乐儿	-12.850000
乐句	-12.850000
乐呵呵	-12.850000
乐善不倦	-12.850000
乐善好义	-12.850000
乐善好施	-13.186111
乐嗟苦咄	-12.850000
乐器	-10.911634
乐团	-12.611402
乐园	-11.247402
乐土	-12.850000
乐在其中	-12.850000
乐坛	-12.850000
乐声	-12.869304
乐天	-12.850000
乐天任命	-12.850000
乐天安命	-12.850000
乐天派	-12.850000
乐天知命	-12.850000
乐子	-12.850000
乐安	-12.850000
乐官	-12.850000
乐寿堂	-13.186136
乐尽哀生	-12.850000
乐尽悲来	-12.850000
乐山	-12.651341
乐山乐水	-12.850000
乐山爱水	-12.850000
乐工	-12.850000
乐师	-12.850000
乐府	-12.411500
乐府诗	-12.850000
乐往哀来	-12.850000
乐律	-12.850000
乐得	-12.850000
乐悠悠	-12.850000
乐意	-12.098623
乐感	-12.850000
乐成人美	-12.850000
乐户	-12.850000
乐手	-12.850000
乐新厌旧	-12.850000
乐昌之镜	-12.850000
乐昌分镜	-12.850000
乐昌破镜	-12.850000
乐曲	-11.970785
乐极则忧	-12.850000
乐极则悲	-12.850000
乐极哀来	-12.850000
乐极悲来	-12.850000
乐极悲生	-12.850000
乐极生哀	-12.850000
乐极生悲	-12.850000
乐果	-12.850000
乐歌	-12.850000
乐此不倦	-12.850000
乐此不疲	-12.850000
乐毅	-12.850000
乐池	-12.850000
乐清	-12.850000
乐滋滋	-12.850000
乐理	-12.850000
乐祸幸灾	-12.850000
乐章	-12.850000
乐而不厌	-12.850000
乐而不淫	-12.850000
乐而不荒	-12.850000
乐而忘死	-12.850000
乐而忘返	-12.850000
乐舞	-12.095387
乐融融	-12.850000
乐行忧违	-12.850000
乐观	-11.014311
乐观主义	-12.850000
乐谱	-12.850000
乐趣	-11.857523
乐迷	-12.850000
乐退安贫	-12.850000
乐道	-12.850000
乐道好古	-12.850000
乐道安命	-12.850000
乐道安贫	-12.850000
乐道忘饥	-12.850000
乐道遗荣	-12.850000
乐都	-12.850000
乐队	-11.510752
乐陶陶	-12.850000
乐音	-12.850000
乐颠颠	-12.850000
乒	-12.236135
乒乓球	-12.852457
乒乓球队	-13.186696
乓	-13.186172
乔	-10.635330
乔丹	-13.187221
乔伯年	-12.852835
乔其纱	-12.850000
乔妆打扮	-12.850000
乔文假醋	-12.850000
乔晓阳	-12.093295
乔木	-11.857795
乔治	-12.237077
乔红	-12.404991
乔纳森	-12.852821
乔装	-12.777435
乔装打扮	-12.850000
乖	-11.582887
乖乖	-11.666280
乖僻邪谬	-12.850000
乖巧	-12.602967
乖觉	-12.850000
乗	-12.852796
乘	-9.528715
乘乘	-12.850000
乘云行泥	-12.850000
乘人之危	-12.850000
乘伪行诈	-12.850000
乘便	-12.850000
乘兴	-12.850000
乘兴而来	-12.850000
乘其不备	-12.850000
乘其不意	-12.850000
乘凉	-12.850000
乘利席胜	-12.850000
乘务员	-12.850000
乘务长	-12.850000
乘势	-12.238182
乘势使气	-12.850000
乘号	-12.850000
乘员	-11.667820
乘坐	-11.860243
乘坚策肥	-12.850000
乘坚驱良	-12.850000
乘壶	-12.850000
乘客	-10.995919
乘幂	-12.850000
乘数	-12.850000
乘方	-12.850000
乘时乘势	-12.850000
乘机	-10.842436
乘机打劫	-12.850000
乘法	-12.734305
乘热打铁	-12.850000
乘积	-12.850000
乘肥衣轻	-12.850000
乘胜	-12.856572
乘胜追击	-12.850000
乘胜逐北	-12.850000
乘舆	-12.850000
乘舆播越	-12.850000
乘船	-12.607213
乘虚	-12.850000
乘虚而入	-12.850000
乘虚蹈隙	-12.850000
乘虚迭出	-12.850000
乘警	-12.850000
乘车	-12.609024
乘车戴笠	-12.850000
乘轻驱肥	-12.850000
乘间伺隙	-12.850000
乘间投隙	-12.850000
乘间抵隙	-12.850000
乘除	-12.850000
乘险抵巇	-12.850000
乘隙	-12.850000
乘隙捣虚	-12.850000
乘隙而入	-12.850000
乘顺水船	-12.850000
乘风	-12.850000
乘风兴浪	-12.850000
乘风破浪	-12.850000
乘风转舵	-12.850000
乘马	-12.615781
乘高决水	-12.850000
乘鸾跨凤	-12.850000
乘龙佳婿	-12.850000
乘龙快婿	-12.850000
乘龙配凤	-12.850000
乙	-10.269271
乙烯	-12.093264
乙状结肠	-12.850000
乙种射线	-12.850000
乙种粒子	-12.850000
乙酸乙酯	-12.852826
乙醇	-11.434680
乙醇胺	-13.186293
乙醚	-12.602839
乜	-14.686122
乜斜	-12.850000
乜斜缠帐	-12.850000
九	-8.436160
九一八事变	-13.186178
九丈	-12.646443
九世之仇	-12.850000
九个	-11.890787
九五	-12.401723
九五之尊	-12.402861
九十	-11.845170
九原可作	-12.850000
九变十化	-12.850000
九合一匡	-12.850000
九品	-12.408918
九品中正	-12.850000
九回肠	-12.850000
九垓八埏	-12.850000
九大行星	-12.850000
九天九地	-12.850000
九天仙女	-12.850000
九头鸟	-12.850000
九宫山	-12.236170
九尺	-12.604574
九尾狐	-12.850000
九州	-12.252562
九年	-10.786358
九折臂	-12.850000
九故十亲	-12.850000
九曲回肠	-10.794712
九月	-10.977385
九朽一罢	-12.850000
九死一生	-12.850000
九死不悔	-12.850000
九江	-11.051902
九流三教	-12.850000
九流十家	-12.850000
九流百家	-12.850000
九牛一毛	-12.850000
九线	-12.620402
九蒸三熯	-12.850000
九行八业	-12.850000
九转功成	-12.850000
九重	-12.850000
九重关	-12.850000
九重城	-12.850000
九重墙	-12.850000
九重天	-12.850000
九重宫	-12.850000
九重泉	-12.850000
九重锁	-12.850000
九重闺	-12.850000
九重阁	-12.850000
九重霄	-12.850000
九门	-12.130757
九间	-11.312803
九间大殿	-12.850000
九间朝殿	-12.850000
九阴真经	-12.402822
九鼎大吕	-12.850000
九龙	-12.248615
乞	-10.627443
乞丐	-11.857264
乞儿乘车	-12.850000
乞力马扎罗山	-12.852843
乞和	-12.850000
乞求	-13.188643
乞浆得酒	-12.850000
乞穷俭相	-12.850000
乞降	-12.850000
乞食	-12.850000
也	-5.386638
也好	-10.511906
也就是说	-10.692932
也是	-12.850000
也罢	-11.820645
也许	-9.160361
习	-10.160378
习与性成	-12.850000
习以为常	-13.186208
习俗	-10.951964
习好	-12.850000
习字帖	-12.850000
习字簿	-12.850000
习家池	-12.236160
习性	-11.437120
习惯	-9.477249
习惯于	-12.265674
习服	-12.850000
习焉不察	-12.850000
习而不察	-12.850000
习见	-12.850000
习题	-12.404021
乡	-8.265902
乡丁	-12.850000
乡下	-11.021458
乡书难寄	-12.850000
乡亲	-11.691480
乡土气息	-12.602829
乡巴佬儿	-12.850000
乡思	-12.850000
乡政府	-12.111725
乡曲	-12.850000
乡村	-10.207922
乡约	-12.850000
乡规民约	-12.850000
乡试	-12.097108
乡里	-12.319910
乡镇	-10.954775
乡镇企业	-11.758461
乡长	-11.054505
乡间	-12.430863
乥	-14.686197
书	-7.778873
书不尽意	-12.850000
书不尽言	-12.850000
书不释手	-12.850000
书价	-12.850000
书体	-12.850000
书信	-11.987283
书僮	-12.850000
书写	-10.696618
书卷	-12.850000
书卷气	-12.850000
书号	-12.850000
书名号	-12.850000
书吧	-12.850000
书呆子	-12.602832
书囊无底	-12.850000
书场	-12.850000
书契	-12.850000
书家	-12.850000
书屋	-12.610802
书展	-12.850000
书店	-12.100049
书归正传	-12.850000
书影	-12.868791
书房	-11.045729
书摊儿	-12.850000
书本	-12.311629
书柜	-12.850000
书桌	-12.605666
书法	-10.807265
书法家	-12.609477
书生	-11.229647
书生之见	-12.850000
书画	-10.955853
书画展	-12.850000
书目	-12.210071
书空咄咄	-12.850000
书籍	-10.911053
书缺有间	-12.850000
书背	-12.850000
书记	-9.029597
书记员	-12.850000
书论	-12.850000
书读五车	-12.850000
书院	-11.513106
书面	-11.600227
书面语	-12.850000
书香世家	-12.850000
书香人家	-12.850000
乩	-12.602856
乪	-14.686222
买	-8.424653
买上告下	-12.850000
买上嘱下	-12.850000
买不起	-12.853432
买买提	-13.186148
买价	-12.850000
买入	-12.427575
买关节	-12.850000
买办	-12.415902
买卖	-10.384204
买好	-12.850000
买家	-12.850000
买得起	-12.850000
买方	-12.626234
买来	-11.736862
买椟还珠	-12.850000
买王得羊	-12.850000
买空卖空	-12.850000
买笑追欢	-12.850000
买者	-12.646085
买铁思金	-12.850000
乱	-8.515952
乱七八糟	-11.968311
乱作胡为	-12.850000
乱发	-12.850000
乱哄哄	-12.850000
乱头粗服	-12.850000
乱弹	-12.850000
乱弹琴	-12.850000
乱成一团	-12.850000
乱打	-12.266082
乱摊子	-12.850000
乱砍	-12.606565
乱砍滥伐	-12.850000
乱箭攒心	-12.850000
乱语胡言	-12.850000
乱说	-12.850000
乳	-10.268190
乳化	-12.850000
乳头	-12.611633
乳房	-11.858155
乳晕	-12.850000
乳汁	-12.853111
乳燕	-12.850000
乳白色	-11.757426
乳糜	-12.850000
乳腺	-13.186469
乳腺癌	-12.093315
乳臭	-12.850000
乳臭未干	-13.186184
乳臭未除	-12.850000
乳酸	-13.188659
乳间股脚	-12.850000
乺	-14.686071
乾	-10.511309
乾乾翼翼	-12.850000
乾坤	-12.236284
乾端坤倪	-12.850000
乾隆	-10.187059
亃	-13.186136
了	-4.332006
了不可见	-12.850000
了不得	-12.850000
了不起	-11.510842
了不长进	-12.850000
了了	-12.850000
了了可见	-12.850000
了事	-12.850000
了却	-12.850000
了如指掌	-12.850000
了局	-12.850000
了当	-12.850000
了得	-12.850000
了悟	-12.850000
了断	-12.850000
了无	-12.850000
了无惧色	-12.850000
了望台	-12.850000
了然	-12.850000
了然于胸	-12.850000
了然无闻	-12.850000
了结	-11.974905
了若指掌	-12.850000
了解	-8.682222
了账	-12.850000
了身脱命	-12.850000
了身达命	-12.850000
予	-10.941144
予人口实	-12.850000
予以	-10.149184
予取予夺	-12.850000
予取予携	-12.850000
予取予求	-12.850000
予夺生杀	-12.850000
予智予雄	-12.850000
予齿去角	-12.850000
争	-9.318581
争上游	-12.850000
争分夺秒	-12.850000
争取	-9.684461
争吵	-11.583239
争多论少	-12.850000
争夺	-10.336372
争奇斗艳	-12.852847
争妍斗艳	-12.850000
争强	-12.850000
争强好胜	-12.850000
争强斗狠	-12.850000
争强斗胜	-12.850000
争强显胜	-12.850000
争得	-12.850000
争执	-11.583435
争抢	-12.606379
争斗	-11.794475
争斤论两	-12.850000
争权夺利	-13.186148
争猫丢牛	-12.850000
争相	-12.358640
争短论长	-12.850000
争端	-11.858804
争议	-10.870489
争论	-10.795557
争辩	-12.236718
争长竞短	-12.850000
争长论短	-12.850000
争霸	-12.403364
争风吃醋	-12.850000
争鸡失羊	-12.850000
争鸣	-13.187896
事	-7.060945
事不关己	-12.850000
事不宜迟	-12.850000
事不师古	-12.850000
事不有余	-12.850000
事不过三	-12.850000
事与原违	-12.850000
事与心违	-12.850000
事与愿违	-12.850000
事业	-8.687952
事业单位	-12.850000
事件	-9.109957
事体	-12.850000
事例	-11.977429
事假	-12.850000
事儿	-10.224105
事先	-10.491648
事关	-12.270599
事出有因	-12.850000
事前	-11.898083
事务	-9.440240
事务员	-12.850000
事务所	-11.095136
事危累卵	-12.850000
事变	-11.951027
事在人为	-12.850000
事在必行	-12.850000
事宜	-11.593139
事实	-9.508910
事实上	-10.013419
事必躬亲	-12.850000
事态	-11.510866
事情	-8.428427
事故	-10.191482
事无大小	-12.850000
事核言直	-12.850000
事物	-9.778842
事过境迁	-12.850000
事过情迁	-12.850000
事过景迁	-12.850000
事迹	-11.669633
事项	-10.102525
事齐事楚	-12.850000
二	-7.403008
二七	-11.616776
二七路	-12.237339
二万五千里	-13.186214
二万五千里长征	-13.186172
二三其德	-12.850000
二三其意	-12.850000
二三十	-12.084443
二世	-11.146471
二个	-12.035575
二中全会	-12.852860
二人	-8.984312
二人台	-12.850000
二人转	-12.850000
二价	-12.850000
二传手	-12.850000
二位	-10.965986
二元	-12.018586
二元论	-12.850000
二分	-11.750372
二分明月	-12.850000
二副	-12.850000
二化螟	-12.850000
二十	-9.695353
二十一	-11.103467
二十一条	-12.239444
二十七年	-11.970047
二十七日	-12.852839
二十万两	-12.236181
二十个	-12.263294
二十九	-12.213816
二十二	-11.864359
二十二年	-12.869815
二十五	-12.508714
二十余	-11.971111
二十余年	-12.127839
二十八	-12.401979
二十八宿	-12.850000
二十八年	-12.413155
二十八日	-12.608240
二十六年	-12.404361
二十四	-11.597876
二十四年	-11.863945
二十四节气	-13.186142
二十多岁	-12.854403
二十多年	-12.406359
二十年	-10.703875
二千	-11.538949
二品	-12.624257
二哥	-11.977887
二地主	-12.850000
二姓之好	-12.850000
二年	-10.103507
二战	-11.520618
二把刀	-12.850000
二把手	-12.850000
二月	-10.777096
二期	-12.228672
二来	-11.593924
二柱	-12.243318
二楼	-12.255523
二次	-10.845112
二次曲线	-12.850000
二次能源	-12.850000
二氧化物	-12.850000
二氧化硅	-12.850000
二氧化硫	-12.852886
二氧化碳	-11.434601
二氧化钛	-13.186160
二氧化锰	-12.850000
二氯	-12.094769
二炮	-12.416623
二爷	-11.974833
二环	-12.621869
二百	-11.281501
二竖为虐	-12.850000
二等奖	-12.852951
二级	-10.170367
二者	-10.973449
二茬	-12.850000
二话不说	-12.852830
二话没说	-12.850000
二路	-10.882134
二进制	-13.186214
二郎	-12.411552
二郎庙	-12.852977
二郎腿	-12.850000
二重	-12.850000
二重唱	-12.850000
二重奏	-12.850000
二重性	-12.850000
二重根	-12.850000
二锅头	-12.850000
二门	-11.643629
二面角	-12.850000
二龙戏珠	-12.850000
亍	-12.602873
于	-6.369324
于二龙	-12.236259
于今为烈	-12.850000
于城邦	-12.343314
于安思危	-12.850000
于家为国	-12.850000
于心何忍	-12.850000
于思	-12.850000
于是	-8.485363
于汉初	-12.402852
于汴梁	-13.187350
于飞之乐	-12.850000
亏	-10.031247
亏待	-12.850000
亏得	-12.850000
亏心短行	-12.850000
亏折	-12.850000
亏损	-10.775422
亏欠	-12.853428
亏空	-12.850000
亏累	-12.850000
云	-8.468371
云中仙鹤	-12.850000
云中白鹤	-12.850000
云中鹤	-12.402812
云交雨合	-12.850000
云兴霞蔚	-12.850000
云冈石窟	-12.850000
云净天空	-12.850000
云南	-9.883721
云南省	-11.669458
云合响应	-12.850000
云合景从	-12.850000
云合雾集	-12.850000
云和	-12.850000
云堦月地	-12.850000
云天雾地	-12.850000
云头	-12.272398
云尤雨殢	-12.850000
云层	-12.243781
云屯席卷	-12.850000
云屯星聚	-12.850000
云屯森立	-12.850000
云屯蚁聚	-12.850000
云屯雨集	-12.850000
云屯雾散	-12.850000
云屯雾集	-12.850000
云屯飙散	-12.850000
云屯鸟散	-12.850000
云山雾罩	-12.850000
云岭	-12.850000
云布雨施	-12.850000
云布雨润	-12.850000
云开见天	-12.850000
云开见日	-12.850000
云开雾散	-12.850000
云悲海思	-12.850000
云情雨意	-12.850000
云愁海思	-12.850000
云愁雨怨	-12.850000
云扰幅裂	-12.850000
云收雨散	-12.850000
云散	-12.850000
云散风流	-12.850000
云景	-12.850000
云朝雨暮	-12.850000
云期雨信	-12.850000
云期雨约	-12.850000
云朵	-11.858176
云杉	-12.237001
云板	-12.865376
云树之思	-12.850000
云梢	-12.850000
云梦县	-13.186190
云母	-11.859556
云泥之别	-12.850000
云泥之差	-12.850000
云泥异路	-12.850000
云泥殊路	-12.850000
云消雨散	-12.850000
云消雾散	-12.850000
云涌	-12.850000
云涌风飞	-12.850000
云涌飙发	-12.850000
云淡风轻	-12.850000
云烟过眼	-12.850000
云片糕	-12.850000
云盘	-12.409353
云程万里	-12.850000
云程发轫	-12.850000
云窗雾槛	-12.850000
云绕龙	-13.186148
云翻雨覆	-12.850000
云舒霞卷	-12.850000
云行雨施	-12.850000
云行雨洽	-12.850000
云贵高原	-13.186148
云趋鹜赴	-12.850000
云过天空	-12.850000
云量	-12.850000
云阶月地	-12.850000
云雀	-12.850000
云集	-11.123299
云集响应	-12.850000
云集景从	-12.850000
云集景附	-12.850000
云雨	-12.850000
云雨巫山	-12.850000
云雾	-11.858194
云雾迷蒙	-12.850000
云霄	-13.186630
云飞泥沉	-12.850000
云飞雨散	-12.850000
云龙风虎	-12.850000
互	-10.255801
互不	-11.606212
互为	-11.881547
互为因果	-12.850000
互为表里	-12.850000
互利	-12.237780
互剥痛疮	-12.850000
互动	-11.435596
互助	-11.138592
互助组	-12.850000
互惠	-12.403248
互惠互利	-12.850000
互敬互爱	-12.850000
互派	-12.850000
互济	-12.850000
互爱	-12.850000
互相	-9.696417
互相推诿	-12.850000
互相标榜	-12.850000
互联	-12.366822
互联网	-10.603584
互补	-12.236010
互补性	-13.188270
互见	-12.850000
互访	-12.403171
互谅	-12.850000
互谅互让	-12.850000
互连	-12.859550
互通	-12.603775
互通有无	-12.850000
亓	-13.686172
五	-7.825935
五一	-10.289971
五一节	-12.850000
五万	-11.703133
五丈	-12.606933
五世其昌	-12.850000
五个	-10.471819
五个一工程	-13.186212
五中全会	-13.186244
五亲六眷	-12.850000
五代	-10.550504
五体投地	-12.850000
五体投诚	-12.850000
五侯七贵	-12.850000
五侯蜡烛	-12.850000
五保	-11.589001
五六	-11.826244
五六个	-12.609534
五六十	-12.633109
五内	-12.850000
五内俱崩	-12.850000
五内如焚	-12.850000
五冬六夏	-12.850000
五分	-10.836818
五分钟	-12.872709
五十	-10.618752
五十万	-12.251935
五十两	-12.408431
五十余	-12.606791
五千	-11.141460
五千余	-12.604210
五千名	-12.856672
五华	-12.850000
五台	-12.850000
五台山	-11.968329
五号	-12.850000
五合六聚	-12.850000
五名	-12.420276
五味子	-12.236175
五四	-12.276989
五四运动	-11.368058
五大	-11.582490
五大三粗	-12.850000
五官科	-12.850000
五尺	-12.675309
五尺之僮	-12.850000
五尺之童	-12.850000
五尺竖子	-12.850000
五尺童子	-12.850000
五届	-12.615820
五岁	-12.613113
五岭	-12.850000
五岳	-11.759353
五峰	-12.866279
五峰土家族自治县	-13.186166
五帝	-12.613785
五年	-9.921041
五彩	-12.098821
五心六意	-12.850000
五抢六夺	-12.850000
五指	-12.633510
五斗折腰	-12.850000
五斗柜	-12.850000
五斗橱	-12.850000
五方杂处	-12.850000
五星	-12.875450
五星红旗	-11.434617
五更	-12.850000
五更天	-12.850000
五月	-10.948983
五月节	-12.850000
五服	-12.850000
五权宪法	-13.186166
五条	-12.600884
五横	-12.100508
五毒	-12.850000
五毒俱全	-12.850000
五毒教	-12.602818
五申三令	-12.850000
五男二女	-12.850000
五百	-11.064813
五百多	-12.915471
五石六鹢	-12.850000
五积六受	-12.850000
五类	-12.657969
五粮液	-12.852798
五经扫地	-12.850000
五羊	-12.850000
五羖大夫	-12.850000
五脊六兽	-12.850000
五脏	-12.856131
五脏六腑	-12.850000
五色	-12.416621
五色土	-12.243598
五色相宣	-12.850000
五节	-12.850000
五花八门	-12.852839
五花大绑	-12.850000
五蕴皆空	-12.850000
五藏六府	-12.850000
五虚六耗	-12.850000
五行	-10.877415
五行俱下	-12.850000
五行八作	-12.850000
五行并下	-12.850000
五行生克	-12.850000
五角六张	-12.850000
五角大楼	-11.666307
五角星	-12.236179
五言绝句	-12.850000
五言长城	-12.850000
五谷	-12.100236
五谷不分	-12.850000
五谷不升	-12.850000
五谷杂粮	-12.850000
五车腹笥	-12.850000
五连冠	-12.852891
五里	-11.555128
五里雾中	-12.850000
五金	-12.127420
五金行	-12.850000
五间	-11.149877
五陵年少	-12.850000
五陵英少	-12.850000
五雀六燕	-12.850000
五零二落	-12.850000
五零四散	-12.850000
五雷轰顶	-12.850000
五霸	-12.856754
五音六律	-12.850000
五项	-12.626322
五颜六色	-13.186160
五风十雨	-12.850000
五马分尸	-12.850000
五黄六月	-12.850000
五鼎万钟	-12.850000
井	-9.848729
井下	-12.258620
井中求火	-12.850000
井中视星	-12.850000
井井有序	-12.850000
井井有方	-12.850000
井井有条	-12.850000
井井有法	-12.850000
井井有绪	-12.850000
井冈山	-11.506036
井口	-12.002029
井台	-12.850000
井喷	-13.187371
井场	-12.850000
井底	-12.850000
井底之蛙	-12.850000
井底虾蟆	-12.850000
井底蛤蟆	-12.850000
井底鸣蛙	-12.850000
井渫不食	-12.850000
井渫莫食	-12.850000
井然有序	-12.850000
井然有条	-12.850000
井筒	-13.187233
井管拘墟	-12.850000
井臼亲操	-12.850000
井蛙之见	-12.850000
亖	-14.686172
亘	-13.686055
亘古不灭	-12.850000
亘古奇闻	-12.850000
亘古未有	-12.850000
亚	-8.703057
亚于	-12.850000
亚军	-12.110405
亚历山大	-11.857199
亚太区	-12.852886
亚太地区	-11.305443
亚平	-11.978479
亚平妈	-13.186485
亚当	-12.850000
亚洲	-9.541024
亚热带	-10.187201
亚硝酸盐	-12.852956
亚种	-12.251486
亚科	-12.233923
亚细亚	-11.968309
亚美尼亚	-12.236184
亚肩叠背	-12.850000
亚肩迭背	-12.850000
亚运	-12.407594
亚运会	-11.506683
亚里士多德	-13.186111
亚非拉	-13.186160
亚马孙河	-12.850000
亚麻	-12.036574
些	-8.242879
些个	-12.850000
些小	-12.850000
些微	-12.850000
些许	-12.850000
些须	-12.850000
亟	-12.852630
亟亟	-12.850000
亟待	-13.186438
亟疾苛察	-12.850000
亟须	-12.850000
亡	-9.740661
亡不待夕	-12.850000
亡不旋跬	-12.850000
亡不旋踵	-12.850000
亡佚	-12.850000
亡党	-12.850000
亡友	-12.850000
亡可奈何	-12.850000
亡命	-12.850000
亡命之徒	-12.850000
亡国	-11.193982
亡国之器	-12.850000
亡国之声	-12.850000
亡国之社	-12.850000
亡国之音	-12.850000
亡国大夫	-12.850000
亡国奴	-12.850000
亡国灭种	-12.850000
亡国破家	-12.850000
亡失	-12.850000
亡戟得矛	-12.850000
亡故	-12.810951
亡灵	-12.604501
亡猿灾木	-12.850000
亡猿祸木	-12.850000
亡矢遗镞	-12.850000
亡秦三户	-12.850000
亡羊之叹	-12.850000
亡羊得牛	-12.850000
亡羊补牢	-12.850000
亡魂	-13.187341
亡魂丧胆	-12.850000
亡魂丧魄	-12.850000
亡魂失魄	-12.850000
亢	-12.601489
亢奋	-13.186226
亢龙有悔	-12.850000
亣	-13.686172
交	-8.601946
交互	-11.247116
交付	-11.435445
交代	-11.586125
交会	-12.143870
交出	-11.900175
交加	-12.610882
交卷	-12.850000
交叉	-10.952158
交叉感染	-12.850000
交叉点	-12.850000
交叉科学	-12.850000
交口同声	-12.850000
交口称誉	-12.850000
交口称赞	-12.850000
交合	-12.850000
交响	-12.860029
交响乐	-12.852831
交响乐团	-12.402925
交响曲	-12.402894
交响诗	-12.850000
交头互耳	-12.850000
交头接耳	-12.850000
交好	-12.850000
交学费	-12.850000
交寄	-12.850000
交尾	-12.850000
交差	-12.850000
交并	-12.850000
交底	-12.850000
交往	-10.437808
交待	-11.861969
交恶	-12.850000
交情	-12.101336
交感神经	-12.852847
交战	-11.203259
交换	-9.912239
交换价值	-12.850000
交换台	-12.850000
交易	-9.599807
交易会	-12.113519
交易所	-11.514611
交易日	-11.871277
交替	-11.139630
交椅	-12.403874
交汇	-11.593718
交汇点	-12.850000
交流	-9.424709
交浅言深	-12.850000
交涉	-10.995572
交淡若水	-12.850000
交由	-12.462237
交电	-12.850000
交界	-11.598157
交界处	-11.506518
交白卷	-12.850000
交相	-12.850000
交相辉映	-13.186184
交纳	-11.585108
交织	-11.666850
交结	-12.850000
交给	-9.788581
交联	-12.861166
交能易作	-12.850000
交臂	-12.850000
交臂历指	-12.850000
交臂失之	-12.850000
交臂相失	-12.850000
交融	-12.603811
交行	-12.850000
交角	-12.850000
交警	-12.237561
交谈	-11.042555
交货	-11.584476
交货值	-12.603193
交还	-12.850000
交迫	-12.850000
交通	-8.613944
交通信号	-12.850000
交通员	-12.866604
交通工具	-12.406137
交通梗塞	-12.850000
交通线	-12.872505
交通车	-12.850000
交通量	-12.850000
交通银行	-12.410568
交配	-12.240205
交锋	-11.757810
交错	-11.308459
交际	-12.094156
交颈并头	-12.850000
交验	-12.850000
亥	-12.236201
亥豕相望	-12.850000
亦	-8.890419
亦可	-11.874415
亦步亦趋	-12.850000
亦趋亦步	-12.850000
产	-8.836941
产业	-8.796194
产业化	-10.954749
产业园	-12.405553
产业结构	-12.850000
产业资本	-12.613976
产业部门	-12.869228
产业链	-12.854796
产于	-11.104665
产供销	-12.850000
产值	-9.867714
产假	-12.850000
产出	-11.531815
产区	-10.955523
产卵	-10.432822
产品	-7.987772
产品质量	-12.850000
产地	-11.029137
产妇	-12.094664
产成品	-12.850000
产期	-12.850000
产权	-11.417635
产物	-11.090695
产生	-8.116098
产能	-11.693374
产褥期	-12.850000
产量	-9.413025
产销	-12.147178
产销率	-12.853285
产需	-12.850000
亨	-11.665810
亨利	-11.583152
亨嘉之会	-12.850000
亨特	-12.236608
亨通	-12.850000
亩	-9.810372
亩产	-12.850000
享	-11.179223
享乐	-12.853726
享乐主义	-12.850000
享受	-10.093344
享有	-9.973019
享用	-12.240374
享誉	-12.402930
京	-8.931737
京九线	-12.853040
京九铁路	-12.602825
京剧	-11.489387
京华	-12.850000
京味儿	-12.850000
京城	-10.384361
京山	-12.632178
京山县	-12.236805
京师	-11.233151
京广	-11.970045
京广线	-11.857447
京广铁路	-11.968508
京戏	-12.850000
京报	-12.245807
京族	-12.406967
京杭运河	-12.602843
京汉	-11.468354
京沪	-13.109822
京沪铁路	-12.852990
京片子	-12.850000
京畿	-12.853007
京西	-11.975713
京郊	-12.853428
京都	-12.850000
京韵大鼓	-13.186178
亭	-9.671829
亭台楼阁	-12.850000
亭子	-12.850000
亭子间	-12.850000
亭长	-12.850000
亮	-9.234857
亮丽	-12.404150
亮光	-12.243193
亮分	-12.850000
亮底	-12.850000
亮度	-12.607483
亮点	-12.248337
亮相	-11.863930
亯	-11.305458
亱	-14.686273
亲	-8.395997
亲丁	-12.850000
亲上做亲	-12.850000
亲上成亲	-12.850000
亲临	-12.407062
亲临其境	-12.850000
亲为	-12.850000
亲事	-12.850000
亲亲	-12.850000
亲人	-11.174681
亲仁善邻	-12.850000
亲代	-12.850000
亲信	-11.195589
亲兄弟	-12.850000
亲兵	-10.513453
亲冒矢石	-12.850000
亲切	-10.996464
亲切感	-12.850000
亲历	-12.850000
亲友	-12.238480
亲口	-12.636796
亲吻	-12.850000
亲和	-12.850000
亲和力	-12.850000
亲善	-12.850000
亲嘴	-12.850000
亲如手足	-12.850000
亲如骨肉	-12.850000
亲娘	-12.850000
亲子	-12.850000
亲家	-12.285258
亲家公	-12.850000
亲家母	-12.850000
亲密	-11.370192
亲密无间	-12.850000
亲属	-11.593642
亲当矢石	-12.850000
亲征	-11.667953
亲情	-12.247647
亲戚	-10.568095
亲手	-11.148058
亲操井臼	-12.850000
亲政	-12.850000
亲故	-12.850000
亲族	-12.850000
亲日派	-12.852886
亲昵	-12.850000
亲朋	-13.187212
亲朋好友	-13.186178
亲本	-12.850000
亲热	-12.418951
亲爱	-12.850000
亲率	-12.871750
亲王	-10.764528
亲生	-11.875721
亲疏	-12.850000
亲疏贵贱	-12.850000
亲痛仇快	-12.850000
亲眷	-12.850000
亲眼	-11.764826
亲眼目睹	-13.186226
亲睦	-12.850000
亲睹	-12.850000
亲知	-12.850000
亲离众叛	-12.850000
亲笔	-12.408822
亲缘	-12.860147
亲聆	-12.850000
亲自	-9.388764
亲贤远佞	-12.850000
亲身	-11.441741
亲迎	-12.850000
亲近	-11.196560
亲随	-12.850000
亲骨肉	-12.403159
亳	-14.686122
亴	-13.686073
亵	-12.602820
亵渎	-13.186166
亸	-11.968329
亹	-13.186154
亹亹不倦	-12.850000
人	-5.197340
人丁	-12.850000
人丁兴旺	-12.850000
人不聊生	-12.850000
人不自安	-12.850000
人世间	-12.850000
人丛	-12.721043
人中	-12.850000
人中之龙	-12.850000
人中狮子	-12.850000
人中骐骥	-12.850000
人中龙虎	-12.850000
人为	-12.850000
人为刀俎	-12.850000
人事	-10.667628
人事不省	-12.850000
人事不知	-12.850000
人事不醒	-12.850000
人事部	-12.404641
人事部门	-12.606372
人亡家破	-12.850000
人亡政息	-12.850000
人亡物在	-12.850000
人亡邦瘁	-12.850000
人人	-10.259710
人人皆知	-12.850000
人代会	-12.093531
人以群分	-12.850000
人们	-7.958966
人仰马翻	-12.850000
人体	-10.108965
人体炸弹	-12.850000
人前人后	-12.850000
人力	-10.283547
人力资源部	-12.402850
人力车	-12.850000
人千人万	-12.850000
人单势孤	-12.850000
人去楼空	-12.850000
人参	-12.092377
人参果	-12.850000
人取我与	-12.850000
人口	-7.950818
人口密度	-12.850000
人口总数	-12.850000
人口数	-10.436879
人各有志	-12.850000
人员	-8.198935
人味儿	-12.850000
人命危浅	-12.850000
人和	-12.850000
人品	-12.208686
人地生疏	-12.850000
人均	-10.048704
人士	-9.258985
人多阙少	-12.850000
人大	-8.541440
人大代表	-9.470811
人大常委会	-9.518484
人夫	-12.850000
人头	-12.850000
人头畜鸣	-12.850000
人头税	-12.850000
人学	-11.474653
人家	-9.002973
人小鬼大	-12.850000
人尽其才	-12.850000
人山人海	-13.186178
人工	-9.870264
人工合成	-12.850000
人工呼吸	-12.853830
人工湖	-12.406331
人工降雨	-12.850000
人强胜天	-12.850000
人强马壮	-12.850000
人影	-11.175771
人心	-10.305001
人心不古	-12.850000
人心丧尽	-12.850000
人心向背	-12.850000
人心大快	-12.850000
人心惶惶	-12.852864
人心涣散	-12.850000
人心莫测	-12.850000
人心难测	-12.850000
人急偎亲	-12.850000
人性	-11.732915
人性论	-12.850000
人情	-11.730028
人所不齿	-12.850000
人所共知	-12.850000
人手	-11.753055
人才	-8.899144
人才市场	-12.850000
人才济济	-12.850000
人才难得	-12.850000
人数	-8.900412
人数众多	-12.850000
人文	-11.420894
人文主义	-13.186955
人机对话	-12.850000
人杰地灵	-12.402843
人样儿	-12.850000
人格	-10.793794
人格化	-12.850000
人模狗样	-12.850000
人次	-11.733691
人欲横流	-12.850000
人氏	-12.472937
人民	-7.327861
人民代表大会	-7.868958
人民代表大会常务委员会	-9.074529
人民公社	-10.725167
人民共和国	-12.099509
人民军队	-11.377960
人民出版社	-12.406693
人民团体	-11.372655
人民大会堂	-11.088612
人民币	-10.129699
人民政协	-12.410999
人民政府	-8.427608
人民教师	-12.850000
人民文学出版社	-12.852873
人民日报	-10.691921
人民日报社	-13.187455
人民检察院	-11.440149
人民武装	-12.247589
人民法院	-9.163752
人民网	-11.597957
人民英雄纪念碑	-11.968315
人民解放军	-10.831318
人民解放军总部	-12.245535
人民解放战争	-11.858843
人浮于食	-12.850000
人海战术	-12.850000
人涉卬否	-12.850000
人满为患	-12.850000
人物	-8.633137
人物肖像	-12.850000
人琴两亡	-12.850000
人琴俱亡	-12.850000
人生	-9.680400
人生朝露	-12.850000
人生若寄	-12.850000
人生观	-12.404842
人百其身	-12.850000
人神共嫉	-12.850000
人神共愤	-12.850000
人神同嫉	-12.850000
人种	-12.850000
人称	-12.850000
人类	-8.842476
人类学	-11.889632
人约黄昏	-12.850000
人给家足	-12.850000
人群	-10.233908
人自为战	-12.850000
人自为政	-12.850000
人莫予毒	-12.850000
人行	-11.575571
人行横道	-12.850000
人行道	-12.242787
人言可畏	-12.850000
人言藉藉	-12.850000
人语马嘶	-12.850000
人财两空	-12.850000
人足家给	-12.850000
人身	-10.687314
人轧人	-12.850000
人迹	-12.295786
人选	-10.377100
人造	-10.739970
人造卫星	-12.853293
人造纤维	-12.850000
人造行星	-12.850000
人道主义	-11.968513
人间	-10.354424
人间地狱	-12.850000
人间天上	-12.850000
人间天堂	-12.850000
人防工程	-12.850000
人际	-12.454524
人际关系	-12.093689
人非木石	-12.850000
人马	-10.053176
亻	-14.686222
亾	-11.666286
亿	-9.318907
亿万	-11.776366
亿万斯年	-12.850000
亿元	-8.387248
亿千瓦时	-11.968304
亿吨	-10.870662
亿多元	-12.603106
亿年	-11.911631
亿日元	-12.853224
亿株	-12.603436
亿立方米	-10.691221
亿美元	-9.990078
亿辛万苦	-12.850000
什	-10.407047
什么	-7.055945
什么事	-12.850000
什么时候	-12.850000
什么样	-10.249486
什么的	-12.850000
什件儿	-12.850000
什伍东西	-12.850000
什围伍攻	-12.850000
什物	-12.850000
什袭以藏	-12.850000
什袭珍藏	-12.850000
什袭而藏	-12.850000
什锦	-12.850000
仁	-9.796569
仁义	-11.758340
仁义道德	-12.853034
仁儿	-12.850000
仁兄	-11.583394
仁化	-12.850000
仁同一视	-12.850000
仁弟	-12.850000
仁心仁术	-12.850000
仁慈	-13.187070
仁术	-12.850000
仁浆义粟	-12.850000
仁者能仁	-12.850000
仁至义尽	-12.850000
仃	-13.686160
仄	-13.685768
仅	-8.657969
仅仅	-9.806246
仅以身免	-12.850000
仅供参考	-11.582957
仅只	-12.850000
仅够	-12.850000
仅容旋马	-12.850000
仅有	-12.850000
仅次于	-10.383232
仅此	-12.850000
仅此而已	-12.850000
仅见	-12.850000
仆	-10.650022
仆人	-11.447138
仆仆亟拜	-12.850000
仆仆道途	-12.850000
仆仆风尘	-12.850000
仆从	-12.616275
仆妇	-12.850000
仆役	-12.850000
仇	-10.200512
仇人	-11.784935
仇外	-12.850000
仇姓	-12.850000
仇家	-12.850000
仇怨	-12.850000
仇恨	-11.506327
仇敌	-12.850000
仇杀	-12.850000
仇视	-12.603764
仇隙	-12.850000
仈	-14.686197
仉	-12.852821
今	-7.835446
今不如昔	-12.850000
今世	-12.691144
今儿	-11.981771
今儿个	-12.406034
今后	-9.976022
今夕何夕	-12.850000
今夜	-11.672051
今天	-8.376834
今年	-8.794084
今日	-8.770624
今晚	-10.436854
今朝	-12.850000
今番	-12.850000
今蝉蜕壳	-12.850000
今雨新知	-12.850000
介	-10.986190
介于	-11.586186
介入	-11.369990
介子	-12.858640
介意	-12.854953
介绍	-8.838517
介绍信	-12.850000
介质	-10.986853
仌	-14.686172
仍	-8.199203
仍旧	-10.760835
仍然	-8.849116
从	-6.370404
从一而终	-12.850000
从不	-11.231329
从业	-11.158475
从业者	-12.856650
从严	-11.677772
从中	-10.803988
从中作梗	-12.850000
从中渔利	-12.850000
从事	-9.127871
从井救人	-12.850000
从今	-12.850000
从从容容	-12.850000
从令如流	-12.850000
从众	-12.850000
从优	-12.850000
从俗	-12.850000
从俗就简	-12.850000
从俗浮沉	-12.850000
从先	-12.850000
从军	-12.850000
从刑	-12.850000
从前	-11.043010
从动	-12.850000
从化	-12.850000
从医	-12.850000
从句	-12.850000
从命	-12.850000
从商	-12.850000
从善如流	-12.850000
从善如登	-12.850000
从善若流	-12.850000
从壁上观	-12.850000
从天而下	-12.850000
从天而降	-12.852839
从头	-11.948089
从头到尾	-12.850000
从头彻尾	-12.850000
从头至尾	-13.186166
从实	-12.850000
从容	-11.871770
从容不迫	-12.602836
从容就义	-12.850000
从容应对	-12.850000
从容自在	-12.850000
从容自如	-12.850000
从容自若	-12.850000
从宽发落	-12.850000
从小	-11.249896
从属	-12.225334
从师	-12.850000
从征	-12.850000
从心所欲	-12.850000
从恶如崩	-12.850000
从恶是崩	-12.850000
从恶若崩	-12.850000
从戎	-12.850000
从政	-11.876769
从教	-12.850000
从新	-12.850000
从未	-10.617805
从未有过	-12.402938
从权	-12.850000
从来	-9.982821
从来不	-11.096119
从此	-9.538414
从没	-11.853414
从流忘反	-12.850000
从犯	-12.850000
从略	-12.850000
从简	-12.850000
从而	-9.137882
从良	-12.850000
从艺	-12.850000
从谏如流	-12.850000
从轻发落	-12.850000
从速	-12.850000
从重	-12.850000
从长商议	-12.850000
从长计议	-12.852830
从长计较	-12.850000
从难	-12.850000
从风而服	-12.850000
从风而靡	-12.850000
仑	-12.852679
仓	-10.627475
仓储	-13.186498
仓储超市	-12.850000
仓卒	-12.850000
仓卒主人	-12.850000
仓卒之际	-12.850000
仓容	-12.850000
仓库	-11.246762
仓猝	-13.186178
仓皇	-12.093709
仓颉	-12.850000
仔	-11.088106
仔密	-12.850000
仔猪	-12.850000
仔畜	-12.850000
仔细	-10.039965
仔肩	-12.850000
仔鱼	-12.850000
仔鸡	-12.850000
仕	-11.757092
仕女	-12.850000
仕女图	-12.850000
他	-5.117997
他乡异县	-12.850000
他乡故知	-12.850000
他们	-6.535251
他们俩	-12.850000
他们的	-12.850000
他们自己	-12.850000
他俩	-12.144839
他处	-12.850000
他妈的	-10.952005
他家	-12.850000
他山之石	-12.850000
他指	-12.850000
仗	-9.569946
仗义	-12.095459
仗节死义	-12.850000
付	-9.960883
付与	-12.850000
付之一炬	-12.850000
付之丙丁	-12.850000
付之度外	-12.850000
付出	-10.443391
付款	-12.603787
付给	-12.620783
付诸实施	-12.236149
付酬	-12.850000
仙	-9.293414
仙乐	-12.850000
仙人	-11.640866
仙台	-12.850000
仙女	-12.850000
仙姿佚貌	-12.850000
仙术	-12.850000
仙桃	-9.989185
仙桃市	-10.760746
仙液琼浆	-12.850000
仙露明珠	-12.850000
仙风道格	-12.850000
仙风道气	-12.850000
仙风道骨	-12.850000
仙鹤	-12.854173
仛	-13.686192
仞	-14.686222
仡	-14.686172
仡佬族	-12.236179
代	-8.755862
代为	-12.850000
代为说项	-12.850000
代主任	-12.243919
代人受过	-12.850000
代人说项	-12.850000
代代相传	-12.850000
代价	-10.953073
代办	-12.253948
代办处	-12.850000
代号	-11.787829
代数	-11.141436
代数和	-12.850000
代数学	-12.609764
代数式	-12.850000
代数数	-12.850000
代数方程	-12.850000
代替	-10.269918
代理	-10.169891
代理人	-11.905121
代理商	-12.404247
代码	-10.383659
代称	-12.850000
代行	-12.425563
代表	-7.595677
代表作	-11.028872
代表团	-10.410724
代表大会	-10.954800
代表性	-10.888636
代言人	-12.852930
代课	-12.857946
代谢	-10.877789
代金	-12.850000
代销	-13.103534
代食品	-12.850000
代马依风	-12.850000
代马望北	-12.850000
令	-8.560346
令不虚行	-12.850000
令亲	-12.850000
令人	-9.605734
令人作呕	-12.850000
令人信服	-12.852830
令人切齿	-12.850000
令人发指	-12.850000
令人喷饭	-12.850000
令人捧腹	-12.850000
令人注目	-12.850000
令人瞩目	-13.186696
令人神往	-12.850000
令人莫测	-12.850000
令人起敬	-12.850000
令人齿冷	-12.850000
令兄	-12.850000
令原之戚	-12.850000
令堂	-12.850000
令妹	-12.850000
令媛	-12.850000
令嫒	-12.850000
令尊	-12.606081
令弟	-12.850000
令旗	-12.850000
令爱	-12.850000
令牌	-12.850000
令状	-12.850000
令狐	-11.972149
令狐公子	-12.093331
令狐冲	-9.498808
令箭	-12.850000
令箭荷花	-12.850000
令节	-12.850000
令行如流	-12.850000
令行禁止	-12.850000
令誉	-12.850000
令郎	-12.850000
以	-6.158304
以一当十	-12.850000
以一持万	-12.850000
以一知万	-12.850000
以上	-7.942940
以下	-9.124085
以不济可	-12.850000
以东	-10.795341
以为	-9.239390
以为后图	-12.850000
以书为御	-12.850000
以人为本	-12.602859
以人为鉴	-12.850000
以人为镜	-12.850000
以人择官	-12.850000
以众暴寡	-12.850000
以佚待劳	-12.850000
以便	-10.425184
以假乱真	-12.850000
以免	-11.178719
以内	-11.278971
以冠补履	-12.850000
以利累形	-12.850000
以前	-9.040468
以力服人	-12.850000
以功补过	-12.850000
以北	-10.232853
以升量石	-12.850000
以南	-10.467235
以卵击石	-12.850000
以卵投石	-12.850000
以卵敌石	-12.850000
以及	-7.689714
以古为鉴	-12.850000
以古为镜	-12.850000
以后	-8.031397
以售其奸	-12.850000
以备	-12.437038
以外	-9.923264
以夜继朝	-12.850000
以大恶细	-12.850000
以守为攻	-12.850000
以宫笑角	-12.850000
以小见大	-12.850000
以工代干	-12.850000
以己度人	-12.850000
以弱制强	-12.850000
以弱胜强	-12.850000
以强凌弱	-12.850000
以强胜弱	-12.850000
以往	-10.417733
以微知着	-12.850000
以微知著	-12.850000
以德服人	-12.850000
以德追祸	-12.850000
以心传心	-12.850000
以忍为阍	-12.850000
以恶报恶	-12.850000
以意为之	-12.850000
以慎为键	-12.850000
以攻为守	-12.850000
以文会友	-12.850000
以日为年	-12.850000
以暴易暴	-12.850000
以期	-12.850000
以来	-8.750587
以正视听	-12.850000
以此	-10.766324
以毁为罚	-12.850000
以毒攻毒	-13.186124
以毛相马	-12.850000
以水投石	-12.850000
以水洗血	-12.850000
以水济水	-12.850000
以求	-11.468299
以汤止沸	-12.850000
以汤沃沸	-12.850000
以汤沃雪	-12.850000
以沫相濡	-12.850000
以法为教	-12.850000
以泽量尸	-12.850000
以渴服马	-12.850000
以火去蛾	-12.850000
以牙还牙	-12.850000
以珠弹雀	-12.850000
以理服人	-12.850000
以疏间亲	-12.850000
以疑决疑	-12.850000
以白为黑	-12.850000
以眼还眼	-12.850000
以石投卵	-12.850000
以石投水	-12.850000
以示	-11.376128
以礼相待	-13.186160
以筌为鱼	-12.850000
以简御繁	-12.850000
以简驭繁	-12.850000
以类相从	-12.850000
以紫为朱	-12.850000
以紫乱朱	-12.850000
以羊易牛	-12.850000
以耳为目	-12.850000
以至	-10.764691
以至于	-11.154450
以致	-10.634699
以色列	-10.269494
以茶当酒	-12.850000
以螳当车	-12.850000
以蠡测海	-12.850000
以血洗血	-12.850000
以西	-11.090469
以观后效	-12.850000
以规为瑱	-12.850000
以言为讳	-12.850000
以誉为赏	-12.850000
以誉进能	-12.850000
以讹传讹	-12.850000
以诚相待	-12.850000
以资鼓励	-12.850000
以身许国	-12.850000
以近	-12.850000
以还	-12.850000
以远	-12.850000
以退为进	-12.850000
以逸待劳	-12.850000
以邻为壑	-12.850000
以郄视文	-12.850000
以酒解酲	-12.850000
以铢称镒	-12.850000
以锥刺地	-12.850000
以镒称铢	-12.850000
以防	-11.753474
以防万一	-12.850000
以防不测	-12.850000
以骨去蚁	-12.850000
以鹿为马	-12.850000
以黑为白	-12.850000
仪	-9.783685
仪仗	-11.368279
仪器	-10.407952
仪式	-10.057578
仪态	-13.188065
仪态万千	-12.850000
仪态万方	-12.850000
仪节	-12.850000
仪表	-11.583870
仪静体闲	-12.850000
仫	-14.665223
们	-7.437478
仰	-10.756762
仰不愧天	-12.850000
仰之弥高	-12.850000
仰事俛畜	-12.850000
仰事俯畜	-12.850000
仰事俯育	-12.850000
仰人眉睫	-12.850000
仰人鼻息	-12.850000
仰仗	-12.850000
仰光	-12.850000
仰八叉	-12.850000
仰卧	-13.186498
仰卧起坐	-12.850000
仰取俯拾	-12.850000
仰天	-12.096841
仰屋着书	-12.850000
仰屋窃叹	-12.850000
仰屋著书	-12.850000
仰慕	-12.236254
仰承	-12.850000
仰拾俯取	-12.850000
仰望	-12.850000
仰泳	-12.850000
仰给	-12.850000
仰脖	-12.850000
仰观俯察	-12.850000
仰视	-12.850000
仰角	-12.850000
仰赖	-12.850000
仰靠	-12.850000
仰面	-12.850000
仰面唾天	-12.850000
仰面朝天	-12.850000
仰韶文化	-12.850000
仰首	-12.850000
仰首伸眉	-12.850000
仲	-11.136177
仲孙	-12.850000
仲家	-12.850000
仲裁	-11.437526
仳离	-12.850000
仴	-14.686172
仵	-14.686071
件	-8.938892
件头	-12.850000
件数	-12.850000
价	-8.954876
价位	-12.617279
价值	-8.264046
价值观	-11.580485
价值规律	-12.609075
价值连城	-12.850000
价增一顾	-12.850000
价廉	-13.187546
价廉物美	-12.850000
价格	-8.713656
价格比	-12.258397
价目	-12.850000
价目表	-12.850000
价码	-12.850000
价等连城	-12.850000
价签	-12.850000
价钱	-12.246017
任	-7.876608
任丘	-12.850000
任人唯亲	-12.850000
任人唯贤	-12.850000
任人摆布	-12.850000
任从	-12.850000
任何	-8.349481
任何人	-10.683843
任便	-12.850000
任克礼	-12.093310
任免	-9.733497
任免权	-12.239037
任其自流	-12.850000
任其自然	-12.850000
任内	-12.850000
任凭	-12.243950
任务	-8.332988
任劳任怨	-12.850000
任命	-10.386501
任姓	-12.850000
任弼时	-13.186178
任性	-12.284332
任怨任劳	-12.850000
任情	-12.850000
任意	-11.001574
任意球	-12.853999
任教	-11.444044
任新民	-13.186233
任期	-9.387786
任用	-12.033112
任职	-10.430195
任脉	-12.850000
任茂东	-12.602852
任课	-12.865273
任贤使能	-12.850000
任贤齐	-12.093299
任达不拘	-12.850000
任选	-12.850000
任重才轻	-12.850000
任重至远	-12.850000
任重致远	-12.850000
任重道悠	-12.850000
任重道远	-12.850000
任随	-12.850000
任飞燕	-13.186166
份	-9.222974
份儿	-12.487314
份儿菜	-12.850000
份儿饭	-12.850000
份地	-12.850000
份子	-12.850000
份量	-12.850000
份额	-10.798023
仿	-10.965194
仿佛	-9.798191
仿冒	-12.850000
仿制	-13.048628
仿单	-12.850000
仿宋体	-12.850000
仿建	-12.850000
仿徨失措	-12.850000
仿效	-12.093409
仿照	-12.236596
仿生	-12.850000
仿真	-12.614732
仿行	-12.850000
伀	-14.686172
企	-10.666451
企业	-7.553550
企业化	-12.850000
企业家	-11.468464
企业界	-12.850000
企事业	-13.188655
企划	-12.850000
企图	-10.248388
企待	-12.850000
企求	-12.854493
企盼	-13.186600
企管	-12.850000
企足而待	-12.850000
企踵可待	-12.850000
伃	-14.686172
伅	-13.186172
伉	-14.665123
伊	-9.559050
伊万	-12.414227
伊丽莎白	-11.968297
伊于胡底	-12.850000
伊何底止	-12.850000
伊利	-12.239326
伊利诺伊	-13.186214
伊吾	-12.850000
伊始	-12.404515
伊尔	-12.095683
伊拉克	-10.248219
伊斯兰	-11.367679
伊斯兰教	-10.484694
伊朗	-9.560401
伊犁	-12.093420
伊玛目	-13.186160
伊甸园	-12.850000
伊藤博文	-12.402833
伍	-11.854883
伍子胥	-12.402855
伍家岗区	-12.236170
伍廷芳	-12.602834
伎	-13.186119
伎俩	-12.236170
伏	-9.612999
伏击	-12.855654
伏地	-12.850000
伏地圣人	-12.850000
伏尔加河	-12.604405
伏帖	-12.850000
伏牛山	-12.602825
伏瘕	-12.850000
伏而咶天	-12.850000
伏虎降龙	-12.850000
伐	-10.752048
伐冰之家	-12.850000
伐功矜能	-12.850000
伐区	-12.850000
伐异党同	-12.850000
伐木	-12.905076
伐毛洗髓	-12.850000
休	-9.830522
休业	-12.850000
休书	-12.850000
休伊特	-13.186178
休休有容	-12.850000
休会	-12.850000
休假	-12.850000
休克	-12.228775
休兵	-12.850000
休兵罢战	-12.850000
休养	-12.604733
休养所	-12.850000
休养生息	-12.850000
休刊	-12.850000
休声美誉	-12.850000
休学	-12.864452
休宁	-12.850000
休息	-9.839345
休想	-12.416727
休憩	-12.850000
休战	-12.850000
休戚	-12.850000
休戚与共	-12.850000
休戚相关	-12.850000
休整	-12.854948
休明盛世	-12.850000
休止	-12.850000
休止符	-12.850000
休渔	-12.850000
休牛归马	-12.850000
休牛散马	-12.850000
休班	-12.850000
休眠	-12.403090
休耕	-12.850000
休耕地	-12.850000
休闲	-10.910399
伒	-14.686172
伔	-14.686022
伕	-12.602818
众	-8.433526
众人	-8.926733
众人广坐	-12.850000
众叛亲离	-12.852839
众口一词	-12.602856
众口交传	-12.850000
众口同声	-12.850000
众口熏天	-12.850000
众口相传	-12.850000
众口难调	-12.850000
众啄同音	-12.850000
众喣漂山	-12.850000
众多	-9.591105
众好众恶	-12.850000
众寡不敌	-12.850000
众将	-11.717038
众少成多	-12.850000
众怒难任	-12.850000
众怒难犯	-12.850000
众所共知	-12.850000
众所周知	-12.093331
众数	-12.850000
众星拱北	-12.850000
众星捧月	-11.857197
众星攒月	-12.850000
众望所归	-12.852826
众毁销骨	-12.850000
众毛攒裘	-12.850000
众毛飞骨	-12.850000
众生相	-12.850000
众目共睹	-12.850000
众目共视	-12.850000
众矢之的	-12.850000
众虎同心	-12.850000
众议院	-11.968306
众说	-12.850000
众说纷揉	-12.850000
众说纷纭	-12.850000
众难群疑	-12.850000
众难群移	-12.850000
优	-10.307275
优于	-11.977887
优价	-12.850000
优先	-10.952724
优劣	-11.857287
优势	-9.478744
优化	-10.996088
优厚	-13.187944
优哉游哉	-13.186160
优孟	-12.403124
优孟衣冠	-12.850000
优异	-11.666647
优待	-12.604804
优待券	-12.850000
优惠	-10.995445
优惠券	-12.850000
优惠待遇	-12.850000
优抚金	-12.850000
优游不断	-12.850000
优游卒岁	-12.850000
优游自得	-12.850000
优游自若	-12.850000
优点	-11.369609
优秀	-9.431543
优种	-12.607406
优缺点	-12.850000
优美	-10.952612
优胜	-11.968946
优胜劣汰	-13.186178
优良	-9.926922
优质	-10.023083
优越	-10.951653
优越性	-12.606772
优雅	-12.403370
伙	-10.465998
伙伴	-10.407795
伙伴关系	-12.850000
伙同	-12.850000
伙夫	-12.850000
伙计	-11.857692
伙食	-12.850000
会	-6.468586
会上	-10.404985
会众	-12.850000
会儿	-11.726431
会元	-12.850000
会党	-12.850000
会典	-12.850000
会刊	-12.850000
会剿	-12.850000
会务	-12.850000
会厌	-12.850000
会友	-12.850000
会合	-12.482080
会同	-11.687846
会后	-11.485087
会员	-10.706422
会员国	-12.879455
会员证	-12.850000
会商	-12.850000
会场	-11.426079
会址	-11.988534
会堂	-12.850000
会宁	-12.850000
会审	-12.425061
会客	-12.850000
会客室	-12.850000
会家不忙	-12.850000
会少离多	-12.850000
会师	-12.850000
会徽	-12.850000
会心	-12.850000
会意	-12.850000
会战	-11.983233
会所	-12.850000
会报	-12.850000
会操	-12.850000
会昌	-12.850000
会晤	-11.583257
会期	-12.850000
会标	-12.429270
会水	-12.850000
会演	-12.850000
会理	-12.850000
会社	-12.850000
会章	-12.850000
会签	-12.850000
会籍	-12.850000
会考	-12.850000
会者不忙	-12.850000
会聚	-12.850000
会见	-10.324181
会计	-10.400167
会计制度	-12.850000
会计师	-12.094899
会议	-7.712368
会议室	-11.866359
会诊	-12.850000
会试	-11.857592
会话	-12.850000
会谈	-10.440614
会账	-12.850000
会费	-12.850000
会车	-12.850000
会通	-12.850000
会逢其适	-12.850000
会道能说	-12.850000
会道门	-12.850000
会钞	-12.850000
会长	-10.567523
会阴	-12.850000
会集	-12.850000
会面	-12.850000
会风	-12.850000
会餐	-11.672448
会馆	-12.746361
会首	-12.850000
会齐	-12.850000
伛偻	-12.850000
伞	-10.538968
伞兵	-11.969934
伞盖	-12.850000
伞骨	-12.850000
伟	-10.623943
伟大	-9.799638
伟论	-12.850000
传	-8.391854
传世	-11.975359
传为佳话	-12.850000
传为笑柄	-12.850000
传为笑谈	-12.850000
传为美谈	-12.850000
传习	-12.850000
传人	-12.850000
传代	-12.850000
传令	-11.623570
传令兵	-12.850000
传入	-11.254150
传入神经	-13.186534
传出	-10.886744
传到	-11.363832
传动	-12.106224
传动带	-12.850000
传单	-12.591043
传单炸弹	-12.850000
传名	-12.850000
传告	-12.850000
传呼	-11.584523
传呼电话	-12.850000
传唤	-12.850000
传唱	-12.850000
传圭袭组	-12.850000
传声	-12.850000
传声器	-12.850000
传声筒	-12.850000
传奇	-10.911802
传媒	-11.138682
传宗接代	-12.850000
传家	-12.850000
传家宝	-12.850000
传导	-12.092705
传布	-12.850000
传帮带	-12.850000
传情	-12.850000
传感	-12.850000
传感器	-11.757214
传扬	-12.850000
传承	-12.867840
传技	-12.850000
传抄	-12.856335
传授	-11.041684
传播	-9.780631
传播者	-12.867758
传教	-12.216830
传教士	-12.603254
传旨	-12.850000
传本	-12.850000
传来	-10.338435
传杯弄盏	-12.850000
传杯换盏	-12.850000
传柄移藉	-12.850000
传染	-12.854682
传染性	-12.403296
传染病	-11.857292
传檄而定	-12.850000
传热	-12.850000
传爵袭紫	-12.850000
传球	-12.244122
传略	-12.850000
传真	-11.442790
传真电报	-12.850000
传神	-12.628491
传神阿堵	-12.850000
传票	-12.850000
传种	-12.850000
传粉	-12.850000
传纸条	-12.850000
传经	-12.850000
传经送宝	-12.850000
传统	-8.597827
传言	-11.765013
传讯	-12.850000
传记	-11.903559
传记片	-12.850000
传译	-12.850000
传话	-12.850000
传说	-9.958226
传诵	-12.850000
传诵一时	-12.850000
传质	-12.850000
传输	-11.306584
传达	-11.678976
传达室	-12.850000
传送	-11.439960
传送带	-12.850000
传递	-10.870701
传遍	-12.405540
传道	-12.850000
传道受业	-12.850000
传销	-12.094967
传问	-12.850000
传闻	-11.508419
传闻异辞	-12.850000
传阅	-12.850000
传颂	-12.850000
传风扇火	-12.850000
传风搧火	-12.850000
传龟袭紫	-12.850000
伤	-8.636045
伤亡	-11.139157
伤亡事故	-12.850000
伤人	-11.787804
伤势	-11.670444
伤化败俗	-12.850000
伤口	-10.338729
伤号	-12.850000
伤员	-12.195910
伤害	-10.659584
伤心	-10.573039
伤感	-12.242326
伤教败俗	-12.850000
伤残人	-12.850000
伤病员	-12.850000
伤痕文学	-12.850000
伤痛	-11.971088
伤筋动骨	-12.850000
伤言扎语	-12.850000
伤财	-12.850000
伤风	-12.850000
伤风败俗	-12.850000
伤风败化	-12.850000
伦	-10.005857
伦敦	-10.248222
伦敦大学	-12.850000
伦理	-12.094140
伦理学	-12.236861
伧	-14.686172
伧俗	-12.850000
伪	-10.792706
伪军	-12.238595
伪君子	-12.850000
伪政权	-12.850000
伪称	-12.850000
伪装	-11.757627
伪造	-11.968532
伫	-12.852835
伯	-9.634988
伯乐	-12.850000
伯乐一顾	-12.850000
伯乐相马	-12.850000
伯仲	-12.850000
伯仲之间	-12.850000
伯仲叔季	-12.850000
伯伯	-10.954762
伯克利	-12.602825
伯公	-12.850000
伯利	-12.858274
伯利兹	-12.850000
伯利安	-12.853147
伯努利	-13.186172
伯劳	-12.850000
伯劳飞燕	-12.850000
伯埙仲篪	-12.850000
伯婆	-12.850000
伯尔尼	-12.850000
伯德	-12.850000
伯明翰	-12.236165
伯格	-12.405171
伯歌季舞	-12.850000
伯母	-12.850000
伯爵	-11.758605
伯父	-12.237198
伯玉知非	-12.850000
伯祖	-12.850000
伯祖母	-12.850000
伯罗奔尼撒	-12.852821
伯道无儿	-12.850000
伯颜	-12.853363
估	-11.433361
估产	-12.850000
估价	-11.654547
估堆儿	-12.850000
估摸	-13.186750
估算	-11.368161
估衣	-12.850000
估计	-9.867647
估量	-12.853978
伲	-14.686147
伴	-10.593587
伴侣	-12.602886
伴同	-12.850000
伴奏	-11.857450
伴生	-11.581847
伴读	-12.850000
伴郎	-12.850000
伴随	-11.368292
伴食中书	-12.850000
伴食宰相	-12.850000
伶	-13.186147
伶俐	-12.602787
伸	-9.742249
伸出	-10.362362
伸头	-12.850000
伸头探脑	-12.850000
伸头缩颈	-12.850000
伸展	-12.604149
伸手	-9.519795
伸曲	-12.850000
伸直	-12.608720
伸缩	-11.757619
伸缩性	-12.850000
伸舌头	-12.850000
伸长	-12.850000
伺	-12.402746
伺侯	-12.850000
伺候	-11.246619
伺弄	-12.850000
伺服	-13.186275
伺机	-12.850000
伺瑕导蠙	-12.850000
伺瑕导隙	-12.850000
伺瑕抵蠙	-12.850000
伺瑕抵隙	-12.850000
伺隙	-12.850000
似	-8.984900
似乎	-8.843705
似地	-11.542249
似懂非懂	-12.850000
似是而非	-12.602849
似曾	-12.850000
似曾相识	-12.850000
似有如无	-12.850000
似水如鱼	-12.850000
似水流年	-12.850000
似漆如胶	-12.850000
似的	-9.622481
似笑非笑	-12.850000
似箭在弦	-12.850000
似醉如痴	-12.850000
似非而是	-12.850000
伽	-10.831673
伽利略	-13.186175
伽蓝	-12.853476
伽马	-12.850000
伽马刀	-12.850000
伽马射线	-12.850000
佃	-11.756866
佃农	-12.403002
佃客	-12.850000
佃户	-12.853246
佃租	-12.850000
但	-6.368238
但愿	-11.452955
但是	-7.916070
但见	-12.850000
佇	-14.686222
佉	-14.686071
位	-7.988912
位不期骄	-12.850000
位于	-8.439878
位列	-12.243441
位卑	-12.850000
位子	-12.280249
位居	-10.835899
位置	-9.058243
位能	-12.850000
低	-8.196000
低下	-11.006104
低于	-10.423543
低价	-11.509705
低估	-12.236834
低凹	-12.850000
低压	-11.973546
低吟浅唱	-12.850000
低哑	-12.850000
低唱浅斟	-12.850000
低唱浅酌	-12.850000
低回不已	-12.850000
低地	-12.850000
低声	-9.947986
低声下气	-13.186172
低声哑气	-12.850000
低声细语	-12.850000
低处	-12.850000
低头	-10.392241
低头丧气	-12.850000
低头哈腰	-12.850000
低头搭脑	-12.850000
低头耷脑	-12.850000
低平	-12.850000
低年级	-12.850000
低幼	-12.850000
低度	-12.850000
低廉	-13.161533
低情曲意	-12.850000
低智	-12.850000
低沉	-11.759572
低温	-11.629051
低潮	-12.607919
低盐	-12.850000
低眉折腰	-12.850000
低空	-12.185513
低端	-12.867436
低糖	-12.850000
低级	-12.104634
低级趣味	-12.850000
低纬度	-12.850000
低能	-12.850000
低能儿	-12.850000
低落	-12.850000
低血压	-12.850000
低血糖	-13.186160
低语	-12.850000
低调	-12.850000
低质	-12.850000
低限	-12.850000
低频	-12.850000
住	-7.619172
住一宿	-12.850000
住地	-12.850000
住址	-12.856941
住处	-12.471017
住宅	-10.832576
住宅区	-12.850000
住家	-12.850000
住宿	-11.584817
住房	-10.161897
住校	-12.850000
住读	-12.850000
住院	-11.421935
佐	-10.831476
佐夫	-12.853965
佐证	-12.236582
佐雍得尝	-12.850000
佐饔得尝	-12.850000
佑	-11.367789
佑助	-12.850000
体	-8.163944
体会	-11.514050
体位	-12.850000
体例	-12.850000
体内	-10.092670
体制	-9.193959
体制改革	-12.850000
体力	-11.375961
体力劳动	-12.850000
体味	-12.850000
体国经野	-12.850000
体坛	-12.866187
体型	-11.968048
体外受精	-12.850000
体外循环	-12.850000
体大思精	-12.850000
体察	-12.850000
体尝	-12.850000
体己	-12.850000
体式	-12.850000
体弱	-12.096425
体形	-12.415982
体念	-12.850000
体态	-12.850000
体态语	-12.850000
体性	-12.850000
体恤	-12.850000
体恤入微	-12.850000
体悟	-12.850000
体惜	-12.850000
体操	-11.247846
体改	-12.850000
体无完皮	-12.850000
体无完肤	-12.850000
体校	-12.850000
体格	-11.438227
体检	-11.858623
体检表	-12.850000
体液	-12.850000
体温	-11.669180
体温表	-12.850000
体温计	-12.850000
体物缘情	-12.850000
体现	-9.333119
体用	-12.850000
体癣	-12.850000
体积	-10.871172
体系	-8.856103
体统	-12.850000
体罚	-12.850000
体肤	-12.850000
体育	-9.030042
体育场	-11.140946
体育运动	-12.244384
体育道德	-12.850000
体育馆	-12.850000
体胀系数	-12.850000
体能	-12.850000
体腔	-12.850000
体虚	-12.611833
体表	-11.510350
体裁	-12.095348
体规画圆	-12.850000
体认	-12.850000
体谅	-13.187137
体貌	-12.850000
体质	-11.438869
体贴	-12.080281
体贴入妙	-12.850000
体贴入微	-12.850000
体重	-10.662348
体量	-12.850000
体长	-11.271557
体面	-12.400780
体验	-10.659138
体魄	-12.850000
何	-8.751624
何不	-12.158190
何乐不为	-12.850000
何事	-12.439257
何仙姑	-12.850000
何以	-10.926911
何其	-12.850000
何其毒也	-12.850000
何况	-10.510879
何去何从	-12.850000
何在	-12.850000
何处	-10.461301
何太冲	-13.186142
何如	-12.850000
何妨	-12.850000
何尝	-12.236978
何干	-12.850000
何应钦	-11.582942
何心隐	-12.093313
何必	-10.338271
何必当初	-12.850000
何患无辞	-12.850000
何所不为	-12.850000
何所不有	-12.850000
何所不至	-12.850000
何振东	-13.186154
何故	-11.794318
何方	-12.619641
何日	-12.850000
何时	-11.014770
何晟铭	-12.602832
何曾	-12.850000
何椿霖	-12.852787
何止	-12.606554
何物	-12.867593
何玉芬	-13.186178
何用	-12.282942
何种	-12.420263
何等	-11.323606
何罪之有	-12.850000
何者	-12.634682
何苦	-12.861951
何许	-12.850000
何许人	-12.850000
何谓	-12.854442
何足为奇	-12.850000
何足介意	-12.850000
何足挂齿	-12.850000
何足道哉	-12.850000
何须	-12.850000
何首乌	-12.850000
何高见	-12.852882
何鲁丽	-12.602845
佗	-13.186208
佘	-14.686172
余	-8.617978
余万	-11.979924
余万元	-12.611153
余下	-11.909457
余亩	-11.970263
余光分人	-12.850000
余兴	-12.850000
余切	-12.850000
余勇可贾	-12.850000
余叔岩	-12.602839
余地	-10.983676
余处	-12.256663
余头	-12.850000
余子碌碌	-12.850000
余孽	-12.853583
余实	-12.593625
余家	-11.060396
余少群	-12.852847
余平方米	-12.283823
余年	-11.646188
余座	-12.866859
余数	-12.850000
余暇	-12.853675
余毒	-12.850000
余种	-10.747362
余米	-12.431981
余脉	-12.239396
余膏剩馥	-12.850000
余角	-12.850000
余量	-12.850000
余霞散绮	-12.850000
余韵流风	-12.850000
余额	-11.247968
余风	-12.850000
余风遗文	-12.850000
余食赘行	-12.850000
佚	-11.968134
佚失	-12.850000
佚文	-12.850000
佛	-9.535062
佛事	-12.850000
佛会	-12.850000
佛像	-12.100394
佛光	-12.850000
佛光寺	-12.850000
佛典	-12.850000
佛口蛇心	-12.850000
佛号	-12.850000
佛堂	-12.850000
佛塔	-12.850000
佛头加秽	-12.850000
佛头着粪	-12.850000
佛头著粪	-12.850000
佛学	-12.850000
佛家	-12.850000
佛寺	-12.856135
佛山	-12.415602
佛山市	-12.850000
佛徒	-12.850000
佛心蛇口	-12.850000
佛性	-12.850000
佛性禅心	-12.850000
佛手	-12.850000
佛手柑	-12.850000
佛教	-10.060764
佛教徒	-12.850000
佛殿	-12.850000
佛法	-12.850000
佛爷	-12.850000
佛牙	-12.850000
佛珠	-12.850000
佛甲草	-12.850000
佛眼佛心	-12.850000
佛眼相看	-12.850000
佛祖	-12.854549
佛系	-12.850000
佛经	-12.242741
佛罗伦萨	-12.850000
佛罗里达	-13.186148
佛门	-12.850000
佛门弟子	-13.186160
佛陀	-12.853493
佛龛	-12.850000
作	-7.610686
作业	-10.728189
作为	-7.731107
作乐	-12.850000
作乱	-12.635952
作价	-12.850000
作伪	-12.857313
作伴	-12.858253
作作有芒	-12.850000
作假	-12.850000
作兴	-12.850000
作出	-9.069116
作别	-12.740675
作古正经	-12.850000
作呕	-12.850000
作品	-9.037501
作响	-11.763465
作善降祥	-12.850000
作困兽斗	-12.850000
作坊	-12.335589
作壁上观	-12.850000
作好作歹	-12.850000
作如是观	-12.850000
作嫁衣裳	-12.850000
作家	-9.799396
作家协会	-12.850000
作对	-11.850771
作小服低	-12.850000
作废	-12.603141
作弄	-12.850000
作弊	-12.217354
作恶	-12.850000
作恶多端	-12.850000
作战	-8.589437
作揖	-12.606182
作数	-12.850000
作文	-11.573700
作曲	-12.100939
作曲家	-11.666962
作歹为非	-12.850000
作法	-11.742861
作浪兴风	-12.850000
作物	-10.598061
作用	-7.933177
作画	-12.698148
作答	-12.406142
作罢	-12.850000
作者	-9.680665
作舍道旁	-12.850000
作言造语	-12.850000
作证	-12.247171
作词	-12.850000
作金石声	-12.850000
作难	-12.850000
作风	-10.703744
佝	-13.186172
佝偻	-12.850000
佝偻病	-12.850000
佝偻着腰	-12.850000
佞	-12.402839
佟	-11.968320
佟大雷	-13.186172
你	-5.652943
你们	-8.024302
你们俩	-12.850000
你们的	-12.850000
你们自己	-12.850000
你唱我和	-12.850000
你好	-11.217617
你家	-11.336197
你来我往	-12.850000
你死我活	-12.402836
你追我赶	-12.850000
佣	-10.870040
佣中佼佼	-12.850000
佣人	-12.850000
佣工	-12.403547
佣金	-12.850000
佣钱	-12.850000
佤	-13.686192
佥	-11.857205
佩	-10.831328
佩服	-11.246701
佬	-11.857212
佯	-12.236141
佯作	-12.850000
佯称	-12.850000
佯风诈冒	-12.850000
佰	-14.686172
佳	-9.694723
佳丽	-12.850000
佳人薄命	-12.850000
佳兵不祥	-12.850000
佳句	-12.850000
佳期	-12.850000
佳绩	-13.186305
佳肴	-10.759011
佳节	-12.856950
併	-14.686197
佶	-14.665024
佷	-11.506026
佸	-10.129252
佹	-11.040801
佹形僪状	-12.850000
佹得佹失	-12.850000
佺	-11.506047
佻薄	-12.850000
佼	-14.686172
佼佼者	-12.093301
佽	-12.602832
使	-6.868938
使不得	-12.419525
使乖弄巧	-12.850000
使令	-12.850000
使假	-12.850000
使劲	-11.182063
使命	-10.883326
使命感	-12.854120
使唤	-12.243170
使坏	-12.850000
使女	-12.850000
使得	-9.899815
使心别气	-12.850000
使性子	-12.850000
使愚使过	-12.850000
使用	-7.833330
使用价值	-12.850000
使羊将狼	-12.850000
使者	-11.238706
使臂使指	-12.850000
使节	-11.600780
使贤任能	-12.850000
使领馆	-12.602842
使馆	-11.507765
使馆区	-12.604751
侀	-12.402839
侃	-12.235941
侃大山	-12.850000
侄	-11.011754
侄儿	-12.106528
侄女	-12.318634
侄女儿	-12.850000
侄女婿	-12.850000
侄子	-12.850000
侄孙	-12.850000
侄孙女	-12.850000
侈	-14.686216
侈丽闳衍	-12.850000
侈人观听	-12.850000
侈侈不休	-12.850000
侈纵偷苟	-12.850000
侈衣美食	-12.850000
侉	-14.686273
侉子	-12.850000
侊	-12.602865
例	-9.666795
例会	-12.850000
例假	-12.850000
例句	-12.850000
例外	-11.141418
例如	-9.351768
例子	-10.797178
例直禁简	-12.850000
例行	-11.167068
例行公事	-12.850000
例行差事	-12.850000
侍	-10.563820
侍从	-12.618922
侍候	-11.434678
侍卫	-10.359469
侍女	-12.406430
侍应生	-12.850000
侍弄	-12.850000
侍执巾节	-12.850000
侍立	-11.858174
侍郎	-10.627725
侏	-13.186178
侏儒一节	-12.850000
侏儒症	-12.850000
侏儒观戏	-12.850000
侑	-13.186136
侒	-14.686222
侔	-14.686172
侔色揣称	-12.850000
侗	-12.602724
侗族	-11.666351
供	-8.890238
供不应求	-12.850000
供事	-12.850000
供人	-12.850000
供佛	-12.850000
供养	-11.436012
供品	-12.850000
供奉	-10.759522
供应	-10.000206
供应商	-12.855589
供应点	-12.850000
供应站	-12.850000
供应链	-13.187052
供料	-12.850000
供暖	-12.850000
供果	-12.850000
供案	-12.850000
供桌	-12.850000
供欣赏	-12.850000
供气	-12.850000
供水	-12.637317
供求	-11.760205
供求关系	-12.850000
供状	-12.850000
供献	-12.850000
供电	-12.869637
供称	-12.850000
供稿	-12.850000
供给	-10.731814
供给制	-12.850000
供职	-12.608871
供认	-12.850000
供认不讳	-12.850000
供词	-12.850000
供过于求	-12.850000
供销	-12.850000
供销社	-12.850000
供需	-12.850000
侜张为幻	-12.850000
依	-9.226764
依丱附木	-12.850000
依从	-12.850000
依依不舍	-13.186184
依依惜别	-12.850000
依头缕当	-12.850000
依头顺尾	-12.850000
依存	-12.856936
依山傍水	-12.236154
依恋	-12.403296
依我看	-12.858431
依托	-11.584292
依据	-9.733951
依旧	-10.628238
依次	-10.871996
依此类推	-12.850000
依法	-10.208542
依法炮制	-12.850000
依然	-9.927144
依照	-9.958144
依稀	-12.236753
依稀可见	-13.186275
依约	-12.850000
依翠偎红	-12.850000
依赖	-10.432713
依违两可	-12.850000
依阿取容	-12.850000
依附	-11.858024
依靠	-10.023258
侠	-10.717636
侠义	-12.604022
侠女	-12.850000
侠客	-11.979872
侠骨	-12.850000
価	-14.686197
侣	-12.602454
侥	-13.186148
侥幸	-11.434613
侦	-12.235965
侦察	-10.074404
侦察员	-12.850000
侦察机	-12.238699
侦探小说	-12.850000
侦探片	-12.850000
侦查	-11.968384
侦缉	-12.850000
侧	-9.419746
侧击	-12.850000
侧卧	-12.850000
侧向	-12.850000
侧室	-12.850000
侧影	-12.850000
侧枝	-12.850000
侧柏	-12.850000
侧根	-12.850000
侧歪	-12.850000
侧泳	-12.850000
侧目	-12.850000
侧目而视	-12.850000
侧翼	-12.850000
侧耳	-12.850000
侧芽	-12.850000
侧视	-12.850000
侧记	-12.850000
侧足而立	-12.850000
侧身	-11.493172
侧边	-12.850000
侧近	-12.850000
侧重	-11.250174
侧门	-12.850000
侧面	-11.669322
侨	-10.626330
侨商	-12.850000
侨居	-12.604521
侨属	-12.850000
侨民	-12.604710
侨眷	-12.093329
侨领	-12.850000
侪	-14.686172
侬	-13.686132
侭多侭少	-12.850000
侮	-12.093170
侮辱	-11.666283
侯	-10.109578
侯义斌	-13.186196
侯张信	-13.186178
侯方域	-11.757189
侯服玉食	-12.850000
侯爵	-12.850000
侯通海	-12.852856
侯长安	-12.854242
侯门	-12.850000
侯门似海	-12.850000
侯门如海	-12.850000
侵	-10.949227
侵入	-10.659661
侵华	-12.403661
侵占	-11.506739
侵害	-11.968872
侵权	-12.403865
侵犯	-10.724552
侵略	-10.205835
侵略军	-11.759852
侵略者	-10.568831
侵蚀	-11.434638
便	-7.101710
便中	-12.850000
便了	-12.850000
便于	-10.694866
便人	-12.850000
便佞	-12.850000
便函	-12.850000
便利	-11.150414
便士	-12.418455
便壶	-12.850000
便嬖	-12.850000
便安	-12.850000
便官	-12.850000
便宜	-10.638835
便宜从事	-12.850000
便宜施行	-12.850000
便宜行事	-12.850000
便宜货	-12.850000
便宴	-12.850000
便帽	-12.850000
便当	-12.072786
便所	-12.850000
便捷	-11.369677
便携式	-12.402833
便是	-9.081281
便服	-12.850000
便条	-12.850000
便桥	-12.850000
便桶	-12.850000
便步	-12.850000
便步走	-12.850000
便民	-12.850000
便池	-12.850000
便溺	-12.850000
便盆	-12.850000
便秘	-12.095117
便笺	-12.850000
便签	-12.850000
便血	-12.850000
便衣	-12.604744
便装	-12.850000
便览	-12.850000
便路	-12.850000
便车	-12.850000
便辞巧说	-12.850000
便道	-12.850000
便门	-12.850000
便鞋	-12.850000
便餐	-12.850000
便饭	-12.850000
促	-10.827147
促使	-10.759981
促成	-11.762796
促进	-9.149740
促进派	-12.850000
促销	-11.757290
俄	-9.337760
俄共	-12.412299
俄军	-12.222768
俄国	-9.937581
俄国人	-12.145709
俄罗斯	-9.199563
俄罗斯联邦	-12.403656
俄语	-12.716615
俅	-12.602839
俊	-10.247723
俊俏	-12.850000
俌	-11.506033
俍	-14.686122
俎	-14.686172
俎上肉	-12.850000
俎樽折冲	-12.850000
俏	-11.305180
俏丽	-12.850000
俏头	-12.850000
俏成俏败	-12.850000
俏皮	-13.187769
俏皮话	-12.850000
俏脸	-12.850000
俏货	-12.850000
俐	-14.678023
俐落	-12.850000
俑	-12.236169
俔	-13.186202
俗	-10.204695
俗不可医	-12.850000
俗不可耐	-12.850000
俗体	-12.850000
俗体字	-12.850000
俗名	-11.760192
俗家	-12.850000
俗曲	-12.850000
俗称	-10.911097
俗话说	-11.968315
俗语	-12.850000
俘	-9.909649
俘敌	-12.850000
俘获	-12.237634
俘虏	-11.088487
俚	-13.686121
俚俗	-12.852847
俚曲	-12.850000
俚语	-12.850000
俛拾仰取	-12.850000
俛拾地芥	-12.850000
俛首帖耳	-12.850000
保	-8.908116
保不住	-12.850000
保不定	-12.850000
保不齐	-12.850000
保价	-12.850000
保住	-11.957703
保佑	-11.857431
保健	-10.831694
保健品	-13.187455
保全	-11.142601
保养	-11.759124
保加利亚	-11.666286
保单	-12.850000
保卫	-10.458229
保外执行	-12.850000
保姆	-11.857965
保存	-9.991982
保守	-10.832564
保安	-11.884111
保定	-11.091770
保家卫国	-12.852821
保密	-11.369298
保尔	-12.610974
保底	-12.850000
保得住	-12.850000
保护	-8.518993
保护价	-12.850000
保护区	-11.987664
保持	-8.833523
保收	-12.850000
保有	-12.850000
保温	-12.606574
保甲	-12.859389
保留	-10.075158
保皇	-12.857920
保真度	-12.850000
保票	-12.850000
保种	-12.850000
保税仓库	-12.850000
保税区	-12.850000
保管	-11.862589
保管员	-13.186979
保罗	-12.610855
保育员	-12.850000
保荐	-12.093467
保藏	-12.850000
保证	-8.907686
保证金	-12.622722
保贞堂	-13.186124
保质保量	-12.850000
保送生	-13.186148
保重	-12.189421
保长	-12.850000
保险	-9.758473
保险单	-12.857994
保险带	-12.850000
保险期	-12.850000
保险柜	-12.850000
保险系数	-12.850000
保障	-9.206656
保鲜	-12.237891
保鲜剂	-12.850000
保鲜袋	-12.850000
保龄球	-13.186134
俞	-11.367915
俞伯牙	-11.857217
俞允	-12.850000
俞大猷	-12.602836
俞小凡	-12.602849
俞正声	-12.236179
俞莲舟	-13.186148
俟	-12.093290
俟河之清	-12.850000
信	-8.213215
信义	-12.850000
信从	-12.850000
信以为真	-13.186172
信仰	-10.597613
信件	-11.043187
信任	-10.358319
信任感	-12.850000
信任投票	-12.850000
信使	-12.850000
信函	-12.850000
信及豚鱼	-12.850000
信口	-12.850000
信口开合	-12.850000
信口开呵	-12.850000
信口开喝	-12.850000
信口开河	-12.236181
信口胡言	-12.850000
信口雌黄	-12.850000
信史	-12.850000
信号	-10.322407
信号处理	-13.043470
信号弹	-12.850000
信号旗	-12.850000
信号枪	-12.850000
信号灯	-12.850000
信士	-12.850000
信天游	-12.850000
信天翁	-12.850000
信奉	-10.702925
信女	-12.850000
信守	-12.850000
信守不渝	-12.850000
信实	-12.850000
信封	-12.101439
信差	-12.850000
信徒	-12.860581
信得过	-12.850000
信心	-10.066587
信念	-11.436355
信息	-8.413214
信息中心	-12.424075
信息产业部	-13.186148
信息化	-11.229002
信息安全	-12.615240
信息库	-12.850000
信息战	-12.850000
信息技术	-12.119144
信息社会	-12.850000
信息网	-11.671769
信息论	-12.850000
信手	-12.850000
信手拈来	-12.850000
信托	-12.099565
信据	-12.850000
信教	-12.850000
信春鹰	-12.602859
信服	-12.850000
信札	-12.850000
信条	-12.850000
信标	-12.850000
信步	-12.850000
信步而行	-12.850000
信汇	-12.850000
信物	-12.850000
信用	-10.589950
信用卡	-12.403803
信用社	-12.093761
信皮儿	-12.850000
信石	-12.850000
信笔	-12.850000
信笔涂鸦	-12.850000
信笺	-12.853762
信筒	-12.850000
信箱	-12.850000
信纸	-12.850000
信而好古	-12.850000
信而有征	-12.850000
信而有证	-12.850000
信言不美	-12.850000
信誉	-12.856434
信誓旦旦	-12.850000
信访	-12.850000
信贷	-11.305880
信贷员	-12.850000
信赏必罚	-12.850000
信赖	-12.237801
信道	-12.082406
信邪	-12.850000
信风	-12.850000
信马由缰	-12.850000
信鸽	-12.850000
俣	-12.852830
俦	-13.686172
俧	-14.686172
俨	-12.852714
俨乎其然	-12.850000
俨然	-12.402922
俩	-10.033399
俩人	-12.850000
俪	-12.093339
俭	-12.402780
俭不中礼	-12.850000
俭可养廉	-12.850000
俭故能广	-12.850000
俭朴	-13.186190
俭省	-12.850000
俭约	-12.850000
修	-8.887467
修习	-12.604549
修养	-11.306679
修复	-11.860263
修女	-12.850000
修好	-12.850000
修建	-10.075941
修承天	-11.968313
修改	-9.404315
修整	-12.858280
修明	-12.416569
修枝	-12.850000
修正	-11.394123
修正主义	-12.850000
修正案	-12.093504
修炼	-11.191258
修理	-12.240801
修理费	-13.186672
修盖	-12.850000
修短随化	-12.850000
修筑	-11.246999
修缮	-10.831750
修葺	-11.757201
修行	-11.258017
修补	-11.858991
修订	-10.995705
修读	-12.850000
修身养性	-12.850000
修身洁行	-12.850000
修辞	-12.405235
修长	-12.850000
修饰	-13.188281
修鳞养爪	-12.850000
修齐治平	-12.850000
俯	-11.364655
俯仰	-12.850000
俯仰之间	-12.850000
俯仰唯唯	-12.850000
俯仰无愧	-12.850000
俯仰由人	-12.850000
俯仰随人	-12.850000
俯伏	-13.186570
俯冲	-12.093640
俯拾仰取	-12.850000
俯拾即是	-12.850000
俯拾地芥	-12.850000
俯拾皆是	-12.850000
俯视	-12.853215
俯角	-12.850000
俯身	-11.437746
俯首帖耳	-12.850000
俰	-14.686022
俱	-10.269018
俱乐部	-10.691187
俱全	-12.096196
俱收并蓄	-12.850000
俳	-12.402844
俳句	-12.850000
俶	-13.686231
俸	-11.757204
俺	-10.268862
俺们	-11.971742
俺家	-12.850000
俾	-13.186124
倍	-9.346360
倍受	-12.850000
倍数	-12.850000
倍日并行	-12.850000
倍率	-12.850000
倍道兼行	-12.850000
倍道而行	-12.850000
倍频	-12.850000
倏	-12.090187
倏地	-12.859524
倏忽之间	-12.850000
倐	-14.686197
們	-14.686172
倒	-7.790331
倒三颠四	-12.850000
倒下	-12.070558
倒不	-12.850000
倒不如	-12.861201
倒不是	-12.850000
倒不错	-12.850000
倒也	-12.850000
倒买倒卖	-12.850000
倒产	-12.850000
倒仓	-12.850000
倒伏	-12.850000
倒休	-12.850000
倒像	-12.284307
倒儿爷	-12.850000
倒冠落佩	-12.850000
倒冠落珮	-12.850000
倒凤颠鸾	-12.850000
倒出	-12.850000
倒出去	-12.850000
倒出来	-12.850000
倒刺	-12.850000
倒剪	-12.850000
倒包	-12.850000
倒卖	-12.850000
倒卵形	-12.850000
倒卷	-12.850000
倒反	-12.850000
倒叙	-12.850000
倒台	-12.850000
倒吊	-12.850000
倒向	-12.850000
倒嗓	-12.850000
倒嚼	-12.850000
倒因为果	-12.850000
倒圈	-12.850000
倒在地上	-12.850000
倒地	-12.850000
倒坍	-12.850000
倒垂	-12.850000
倒垃圾	-12.850000
倒塌	-12.094570
倒头	-12.850000
倒头便睡	-12.850000
倒好	-12.850000
倒好儿	-12.850000
倒屣相迎	-12.850000
倒山倾海	-12.850000
倒峡泻河	-12.850000
倒带	-12.850000
倒带键	-12.850000
倒序	-12.850000
倒序词典	-12.850000
倒座	-12.850000
倒廪倾囷	-12.850000
倒弄	-12.850000
倒彩	-12.850000
倒影	-12.850000
倒悬	-12.850000
倒悬之急	-12.850000
倒悬之苦	-12.850000
倒憋气	-12.850000
倒戈	-12.857054
倒戈卸甲	-12.850000
倒戢干戈	-12.850000
倒手	-12.850000
倒打一瓦	-12.850000
倒打一耙	-12.850000
倒扣	-12.850000
倒执手版	-12.850000
倒找	-12.850000
倒把	-12.850000
倒持太阿	-12.850000
倒持干戈	-12.850000
倒持戈矛	-12.850000
倒持手板	-12.850000
倒持泰阿	-12.850000
倒挂	-12.850000
倒挂金钟	-12.850000
倒换	-12.850000
倒接	-12.850000
倒插	-12.850000
倒插笔	-12.850000
倒插门	-12.850000
倒收付息	-12.850000
倒放	-12.850000
倒数	-12.850000
倒数式	-12.850000
倒数比	-12.850000
倒数计时	-12.850000
倒映	-12.850000
倒春寒	-12.850000
倒是	-12.850000
倒替	-12.850000
倒板	-12.850000
倒果为因	-12.850000
倒栽葱	-12.850000
倒档	-12.850000
倒欠	-12.850000
倒毙	-12.850000
倒水	-12.850000
倒汇	-12.850000
倒流	-12.850000
倒海翻江	-12.850000
倒灌	-12.850000
倒灶	-12.850000
倒爷	-12.850000
倒片	-12.850000
倒片机	-12.850000
倒牌子	-12.850000
倒牙	-12.850000
倒班	-12.850000
倒睫	-12.850000
倒票	-12.850000
倒空	-12.850000
倒立	-12.850000
倒算	-12.850000
倒箧倾囊	-12.850000
倒箧倾筐	-12.850000
倒粪	-12.850000
倒绷孩儿	-12.850000
倒置	-12.850000
倒置干戈	-12.850000
倒胃口	-12.850000
倒背如流	-12.850000
倒背手	-12.850000
倒脉冲	-12.850000
倒腾	-12.608487
倒苦水	-12.850000
倒茬	-12.850000
倒茶	-12.850000
倒虹吸管	-12.850000
倒血霉	-12.850000
倒行逆施	-12.850000
倒街卧巷	-12.850000
倒装	-12.850000
倒装句	-12.850000
倒装词序	-12.850000
倒裳索领	-12.850000
倒计时	-12.402888
倒许	-12.850000
倒读数	-12.850000
倒账	-12.850000
倒账卷逃	-12.850000
倒贴	-12.850000
倒赔	-12.850000
倒踏门	-12.850000
倒车	-12.850000
倒转	-12.260073
倒转来说	-12.850000
倒轮闸	-12.850000
倒载干戈	-12.850000
倒过儿	-12.850000
倒过去	-12.850000
倒过来	-12.850000
倒运	-12.850000
倒退	-11.512792
倒退一步	-12.850000
倒酒	-12.850000
倒金字塔	-12.850000
倒锁	-12.850000
倒锁上门	-12.850000
倒错	-12.850000
倒闭	-12.850000
倒阁	-12.850000
倒霉	-11.857394
倒风	-12.850000
倒飞	-12.850000
倓	-13.686143
倔	-14.664924
倔头倔脑	-12.850000
倔头强脑	-12.850000
倔強	-12.850000
倔强	-12.850000
倔强倨傲	-12.850000
倔犟	-12.850000
倖	-14.686172
倘	-11.365318
倘佯	-12.850000
倘使	-11.859006
倘或	-12.406414
倘来之物	-12.850000
倘然	-12.850000
倘若	-9.508834
候	-10.424593
候场	-12.850000
候教	-12.850000
候机	-12.850000
候补	-12.236630
候补委员	-12.093441
候车	-12.850000
候车室	-13.186160
候选人	-9.648802
倚	-10.691181
倚天剑	-13.186196
倚天拔地	-12.850000
倚姣作媚	-12.850000
倚官挟势	-12.850000
倚强凌弱	-12.850000
倚翠偎红	-12.850000
倚重	-12.850000
倚门卖俏	-12.850000
倚闾望切	-12.850000
倚马可待	-12.850000
倛	-14.686222
倜	-12.602862
倜傥不羁	-12.850000
倜傥不群	-12.850000
倝	-13.186184
倞	-12.402795
借	-9.395367
借东风	-12.850000
借交报仇	-12.850000
借以	-11.451528
借公行私	-12.850000
借力	-12.098328
借助	-11.245122
借助于	-12.610241
借口	-10.796612
借客报仇	-12.850000
借宿	-12.403591
借尸还阳	-12.850000
借尸还魂	-12.850000
借据	-12.850000
借景	-12.850000
借景生情	-12.850000
借机	-12.097622
借条	-12.850000
借款	-11.138791
借此机会	-13.186124
借水行舟	-12.850000
借用	-12.261366
借着	-12.010242
借篷使风	-12.850000
借花献佛	-12.850000
借读	-12.850000
借调	-12.850000
借贷	-11.757396
借身报仇	-12.850000
借重	-12.850000
借鉴	-11.246735
借镜观形	-12.850000
借面吊丧	-12.850000
借题发挥	-12.850000
借风使船	-12.850000
借鸡生蛋	-12.850000
倡	-12.093023
倡优	-12.850000
倡办	-12.850000
倡导	-11.246645
倡情冶思	-12.850000
倡条冶叶	-12.850000
倡而不和	-12.850000
倡言	-12.850000
倡议	-11.757259
倡议书	-12.850000
倢	-14.686022
倥	-14.670123
倥侗	-12.850000
倦	-11.757123
倦尾赤色	-12.850000
倦鸟知还	-12.850000
倨	-14.686172
倩	-13.686196
倩女离魂	-12.850000
倪	-12.093195
倪家塔	-12.236165
倬	-14.686172
倭	-11.968237
倭寇	-12.093290
倭瓜	-12.850000
倸	-14.686222
倹	-14.686222
债	-11.188544
债券	-11.507246
债务	-10.864206
债务人	-12.431230
债务重组	-12.850000
债台高筑	-12.850000
债多不愁	-12.850000
债权	-12.397817
债权人	-11.860571
值	-9.114982
值当	-12.850000
值得	-10.126578
值得一提	-12.850000
值得一提的是	-12.852835
值班	-11.436026
值班室	-12.850000
值钱	-11.974607
倾	-9.938014
倾侧	-12.850000
倾倒	-12.850000
倾吐	-12.850000
倾向	-10.188652
倾听	-11.094215
倾囊	-12.850000
倾家	-12.850000
倾家破产	-12.850000
倾家竭产	-12.850000
倾家荡产	-13.186184
倾家败产	-12.850000
倾心	-12.243967
倾心吐胆	-12.850000
倾斜	-10.870363
倾斜度	-12.850000
倾泄	-12.850000
倾注	-11.857666
倾洒	-12.850000
倾盆大雨	-12.850000
倾盖	-12.850000
倾盖如故	-12.850000
倾筐倒庋	-12.850000
倾筐倒箧	-12.850000
倾箱倒箧	-12.850000
倾肠倒肚	-12.850000
倾覆	-12.603204
倾角	-12.850000
倾诉	-12.403069
偀	-14.686172
偁	-14.686222
偃	-11.666306
偃旗仆鼓	-12.850000
偃武休兵	-12.850000
偃武兴文	-12.850000
偃武行文	-12.850000
偃革为轩	-12.850000
偃革倒戈	-12.850000
偅	-10.831754
假	-8.951989
假人假义	-12.850000
假人辞色	-12.850000
假仁假义	-12.850000
假仁假意	-12.850000
假以辞色	-12.850000
假使	-11.990945
假公济私	-12.850000
假公营私	-12.850000
假冒	-11.858653
假分数	-12.850000
假力于人	-12.850000
假名托姓	-12.850000
假如	-10.633365
假定	-11.091619
假山	-12.110195
假币	-12.850000
假想敌	-13.186190
假惺惺	-12.850000
假意	-12.412906
假慈悲	-12.850000
假戏真做	-12.850000
假手于人	-12.850000
假扮	-13.187654
假日	-11.688056
假日办	-13.187377
假日经济	-12.850000
假期	-11.437093
假条	-12.850000
假植	-12.850000
假模假式	-12.850000
假洋鬼子	-12.850000
假球	-12.850000
假痴不癫	-12.850000
假痴假呆	-12.850000
假眉三道	-12.850000
假若	-11.761876
假药	-12.863464
假虎张威	-12.850000
假装	-11.508111
假言	-12.850000
假誉驰声	-12.850000
假设	-11.308455
假话	-12.850000
假说	-12.176188
假象	-12.873329
假货	-12.857369
假途灭虢	-12.850000
假道	-12.850000
假道灭虢	-12.850000
假门假事	-12.850000
假门假氏	-12.850000
假面	-12.850000
假髻	-12.850000
偈	-12.602834
偈语	-12.850000
偌	-14.673123
偌大	-12.850000
偎	-12.236158
偎干就湿	-12.850000
偎慵堕懒	-12.850000
偎红倚翠	-12.850000
偏	-9.381661
偏于	-12.850000
偏信	-12.850000
偏信则暗	-12.850000
偏偏	-11.182411
偏僻	-12.402933
偏南	-12.405949
偏听偏信	-12.850000
偏好	-12.850000
偏差	-11.858988
偏心眼儿	-12.850000
偏爱	-12.409489
偏离	-12.608264
偏裨	-12.850000
偏要	-12.132759
偏见	-12.425559
偏远	-12.862511
偏重	-11.973469
偏食	-12.850000
偏饭	-12.850000
偐	-14.686222
偕	-11.968307
偕行	-12.850000
做	-7.108181
做事	-11.085271
做亲	-12.850000
做人	-11.562374
做假	-12.850000
做出	-9.729416
做到	-10.193467
做好	-10.111161
做好事	-12.850000
做好做恶	-12.850000
做好做歹	-12.850000
做官	-12.257612
做客	-12.430695
做成	-11.445372
做梦	-11.673644
做法	-9.788539
做生意	-11.860577
做衣服	-12.850000
做证	-12.850000
做诗	-12.850000
做贼	-12.850000
做饭	-11.145996
停	-9.146657
停云落月	-12.850000
停产	-12.605753
停刊	-13.188148
停发	-12.850000
停妻再娶	-12.850000
停建	-12.850000
停当	-12.253235
停战	-12.409406
停播	-12.850000
停放	-12.612761
停止	-9.771876
停步	-11.970285
停泊	-12.093713
停滞	-11.857495
停滞不前	-12.850000
停牌	-12.238293
停留	-10.839516
停留长智	-12.850000
停赛	-12.850000
停车	-12.098581
停靠	-12.406528
停顿	-11.667173
停食	-12.850000
停驶	-12.850000
偟	-14.686071
偣	-13.186124
偤	-14.686122
健	-9.990874
健全	-10.588754
健壮	-12.236528
健将	-12.850000
健康	-9.413054
健美	-12.096565
健身	-12.115622
健身器	-12.850000
偦	-13.686212
偧	-14.686071
偩	-14.686222
偬	-14.670023
偶	-10.530478
偶一为之	-12.850000
偶像	-11.585002
偶函数	-12.850000
偶发	-12.850000
偶合	-12.850000
偶尔	-10.794943
偶感	-12.850000
偶数	-12.856902
偶然	-10.768031
偶遇	-12.853718
偷	-9.796468
偷偷	-11.089110
偷合取容	-12.850000
偷合苟从	-12.850000
偷合苟容	-12.850000
偷懒	-13.186563
偷狗戏鸡	-12.850000
偷空	-12.850000
偷窥	-13.186587
偷袭	-11.757569
偺	-14.686122
偻	-12.602839
偿	-11.579065
偿付	-12.602967
偿其大欲	-12.850000
偿命	-13.187576
偿还	-11.972075
傀	-14.682723
傀儡	-12.850000
傅	-10.755645
傅宗龙	-12.852835
傅德辉	-11.305443
傅志寰	-12.093310
傅振邦	-12.402827
傅立叶	-12.850000
傅粉何郎	-12.850000
傅粉施朱	-12.850000
傅自应	-12.402839
傈	-14.669924
傉	-13.686162
傍	-11.857049
傍人篱落	-12.850000
傍晚	-11.757335
傍若无人	-12.850000
傍观冷眼	-12.850000
傍观者清	-12.850000
傑	-14.686273
傒	-14.686122
傕	-12.236191
傗	-10.758992
備	-11.040808
傚	-10.724510
傛	-10.910203
傜	-11.582976
傝	-11.434618
傞	-12.093328
傣	-12.852708
傣族	-11.582991
傥	-14.686222
傦	-13.686192
傧	-14.686122
傧相	-12.850000
储	-10.757746
储备	-10.539614
储存	-11.040931
储油构造	-13.186233
储油罐	-12.850000
储蓄	-11.757258
储蓄所	-12.850000
储蓄银行	-12.850000
储藏	-12.850000
储量	-10.207115
储金	-12.850000
傩	-12.852830
傫如丧狗	-12.850000
催	-10.407251
催促	-11.246655
催办	-12.850000
催化	-11.506973
催化剂	-11.246686
催化裂化	-12.850000
催发	-12.850000
催吐剂	-12.850000
催款	-12.850000
催泪弹	-12.850000
催泪炸弹	-12.850000
催眠	-12.853107
催眠曲	-12.850000
催眠术	-12.850000
催迫	-12.850000
傲	-11.188956
傲不可长	-12.850000
傲头傲脑	-12.850000
傲慢	-13.186594
傲慢不逊	-12.850000
傲慢少礼	-12.850000
傲睨一切	-12.850000
傲睨万物	-12.850000
傲睨得志	-12.850000
傲睨自若	-12.850000
傲霜斗雪	-12.850000
傲骨	-12.850000
傲骨嶙嶙	-12.850000
傻	-10.267938
傻乐	-12.850000
傻劲儿	-12.850000
傻呵呵	-12.850000
傻大黑粗	-12.850000
傻头傻脑	-12.850000
傻子	-11.861270
傻瓜	-12.403038
傻笑	-12.407949
傻蛋	-12.093835
像	-7.577757
像心称意	-12.850000
像是	-10.541787
像样	-12.409887
像模像样	-12.850000
像片	-12.850000
僓	-14.686172
僖	-14.686172
僗	-13.686172
僚	-13.137192
僚属	-12.850000
僛	-13.686162
僧	-9.704053
僧人	-11.406616
僧侣	-12.852917
僧多粥少	-12.850000
僧帽	-12.850000
僬侥	-12.850000
僭	-9.839242
僮	-13.186175
僮仆	-12.850000
僰	-14.686222
僳	-14.669824
僵	-11.664768
僵冷	-12.850000
僵化	-13.187932
僵尸	-11.434654
僵局	-13.186934
僵持	-12.853159
僵死	-12.850000
僵硬	-12.603156
僵蚕	-12.850000
僻	-12.093112
僻壤	-12.850000
僻字涩句	-12.850000
僻巷	-12.850000
僻远	-12.850000
僻静	-12.602926
僼	-14.686172
儁	-14.686172
儆	-13.186196
儉	-14.685971
儋石之储	-12.850000
儎	-14.686222
儏	-12.236175
儒	-11.188668
儒商	-12.850000
儒学	-12.605117
儒家	-11.306561
儒将	-12.850000
儒教	-12.850000
儒术	-13.186799
儒林	-12.850000
儒释道	-12.850000
儒雅	-13.186696
儒雅风流	-12.850000
儓	-14.686222
儕	-13.186184
儗	-14.686172
儗不于伦	-12.850000
儗非其伦	-12.850000
儜	-14.686172
儡	-14.682623
儭	-14.686172
儴	-11.968306
儷	-14.686222
儹	-13.686192
儿	-7.882599
儿化	-12.850000
儿女	-10.944803
儿女之情	-12.850000
儿女亲家	-12.850000
儿女债	-12.850000
儿女心肠	-12.850000
儿女情长	-12.850000
儿女成行	-12.850000
儿媳	-12.232188
儿媳妇儿	-12.850000
儿子	-8.838363
儿孙	-12.850000
儿戏	-12.410107
儿童	-9.386250
儿童乐园	-12.850000
儿童村	-12.850000
儿童节	-12.850000
儿郎	-12.850000
兀	-10.909517
兀秃	-12.850000
兀自	-11.368994
允	-10.597198
允准	-13.187473
允当	-12.850000
允执其中	-12.850000
允执厥中	-12.850000
允许	-10.129304
兂	-12.093321
元	-7.635554
元世祖	-11.968288
元代	-10.572173
元件	-12.250401
元器件	-13.187715
元大都	-10.512486
元奸巨恶	-12.850000
元宵节	-13.186142
元帅	-11.232344
元年	-9.545578
元恶大奸	-12.850000
元恶大憝	-12.850000
元戎启行	-12.850000
元旦	-11.506468
元曲	-12.850000
元朝	-11.368045
元气	-12.006683
元素	-10.270975
元经秘旨	-12.850000
元老	-11.804841
元音	-12.247547
元首	-11.444264
兄	-9.547122
兄妹	-12.236418
兄弟	-8.801677
兄弟怡怡	-12.850000
兄弟阋墙	-12.850000
兄死弟及	-12.850000
兄肥弟瘦	-12.850000
兄长	-11.642393
充	-10.491858
充任	-12.850000
充其量	-12.602845
充军	-12.267016
充分	-9.276379
充塞	-12.850000
充填	-13.186685
充天塞地	-12.850000
充实	-11.246991
充当	-10.997153
充数	-12.850000
充斥	-12.602880
充栋汗牛	-12.850000
充栋盈车	-12.850000
充沛	-11.666324
充满	-9.603685
充电	-12.217440
充盈	-13.186329
充类至尽	-12.850000
充耳不闻	-12.850000
充血	-12.850000
充裕	-12.402999
充足	-11.247041
充饥	-12.602940
兆	-10.597250
兆头	-12.850000
兆赫	-12.853090
兆载永劫	-12.850000
先	-7.754987
先下手为强	-12.852847
先主	-12.261729
先于	-12.099113
先令	-11.982085
先例	-12.864622
先入为主	-13.186154
先入之见	-12.850000
先前	-10.775151
先发制人	-13.186166
先号后庆	-12.850000
先号后笑	-12.850000
先后	-8.719065
先天	-11.662573
先天不足	-12.850000
先夫	-12.850000
先头	-12.850000
先师	-11.874832
先帝	-12.100098
先得我心	-12.850000
先忧后乐	-12.850000
先我着鞭	-12.850000
先是	-11.036575
先期	-11.375850
先烈	-12.860971
先父	-12.850000
先王	-12.850000
先生	-8.286547
先睹为快	-12.850000
先知	-12.429343
先知先觉	-12.850000
先祖	-12.863373
先秦	-11.669267
先笑后号	-12.850000
先自隗始	-12.850000
先行	-10.682142
先行后闻	-12.850000
先行官	-12.850000
先行者	-12.850000
先见	-12.850000
先见之明	-12.850000
先觉	-12.850000
先进	-8.632906
先锋	-10.359767
先难后获	-12.850000
先驱	-11.368904
先验论	-12.850000
光	-8.024259
光临	-12.610494
光亮	-11.773351
光化	-12.850000
光华	-10.514658
光华夺目	-12.850000
光压	-12.850000
光可鉴人	-12.850000
光合作用	-12.402866
光圈	-12.850000
光复	-12.737853
光大	-12.850000
光天化日	-12.852821
光头	-12.471135
光学	-10.466882
光导纤维	-12.850000
光年	-11.647670
光度	-12.415351
光彩	-11.669166
光彩夺目	-11.757201
光彩照人	-12.850000
光控	-12.850000
光明	-10.822694
光明正大	-12.850000
光明磊落	-12.850000
光晕	-12.850000
光景	-12.649583
光杆	-12.850000
光杆儿	-12.850000
光束	-12.380178
光栅	-12.850000
光棍	-12.404800
光棍儿	-12.850000
光污染	-12.850000
光泽	-11.435492
光洁度	-12.850000
光源	-12.105811
光溜	-12.850000
光溜溜	-12.850000
光滑	-12.617027
光焰万丈	-12.850000
光照	-12.244445
光环	-12.866240
光电	-11.401794
光盘	-11.862872
光秃	-12.855095
光纤	-12.604255
光纤通信	-12.850000
光线	-11.375194
光绪	-10.227345
光绪帝	-12.854159
光缆	-13.186714
光能	-12.850000
光腚	-12.850000
光芒	-10.359568
光芒万丈	-12.850000
光荣	-10.512042
光荣感	-12.850000
光荣榜	-12.850000
光解	-12.850000
光谱	-12.095942
光谷	-11.370611
光车骏马	-12.850000
光辉	-10.627880
光通信	-12.850000
光速	-11.969294
光采夺目	-12.850000
光阴	-12.408492
光阴似箭	-12.850000
光顾	-12.611126
光风霁月	-12.850000
光鲜	-12.850000
克	-8.415706
克丁克卯	-12.850000
克什米尔	-12.602859
克传弓冶	-12.850000
克分子	-12.850000
克制	-11.765539
克劳斯	-13.186154
克尼杜	-13.186124
克尽厥职	-12.850000
克尽职守	-12.850000
克己	-12.857144
克己慎行	-12.850000
克扣	-12.856672
克拉	-11.020869
克敌制胜	-12.852830
克斯	-11.628978
克服	-10.952497
克期	-12.850000
克林顿	-12.236175
克格勃	-12.850000
克罗地亚	-11.968306
克莱	-11.842098
克里斯	-12.842645
克里特	-11.757050
克里特岛	-12.603233
克食	-12.850000
克鲁	-12.608196
免	-10.043140
免不了	-12.605189
免不得	-12.850000
免予	-12.850000
免于	-12.237424
免冠	-12.850000
免去	-11.979250
免受	-12.595220
免征	-12.418177
免得	-11.117690
免掉	-12.605266
免收	-12.850000
免服	-12.850000
免检	-12.850000
免疫	-10.758693
免票	-12.850000
免税	-12.781510
免税店	-12.850000
免职	-12.094406
免袒	-12.850000
免费	-10.228169
免遭	-13.187691
免除	-12.239110
免麻	-12.850000
兏	-14.686172
兑	-10.831326
兑付	-12.850000
兑取	-12.850000
兑奖	-12.850000
兑换	-11.088723
兑换券	-12.850000
兑款	-12.850000
兑现	-12.403600
兔	-10.909373
兔丝燕麦	-12.850000
兔头麞脑	-12.850000
兔子	-12.096037
兔葵燕麦	-12.850000
兔角牛翼	-12.850000
兔角龟毛	-12.850000
兔走鹘落	-12.850000
兔起鹘落	-12.850000
兖	-13.685790
兖州	-12.852999
兗	-14.686172
兘	-11.434603
党	-7.785574
党中央	-9.841381
党内	-10.556439
党务	-12.861006
党参	-12.850000
党同伐异	-12.850000
党同妒异	-12.850000
党员	-10.517076
党团员	-12.850000
党坚势盛	-12.850000
党委	-10.871331
党委书记	-11.857550
党建	-12.850000
党心	-12.850000
党总支	-12.850000
党恶佑奸	-12.850000
党支部	-12.093865
党政	-11.420970
党政军	-12.094430
党政工团	-12.850000
党校	-12.850000
党棍	-12.850000
党派	-11.881603
党票	-12.850000
党禁	-12.850000
党章	-12.250449
党纪	-12.850000
党组	-11.510787
党组织	-11.602084
党羽	-12.606169
党规	-12.850000
党豺为虐	-12.850000
党邪丑正	-12.850000
党邪陷正	-12.850000
党项	-12.627296
党风	-11.994824
兜	-10.657928
兜售	-13.186552
兜圈子	-12.852977
兜头盖脸	-12.850000
兜生意	-12.850000
兜肚	-12.850000
兜肚连肠	-12.850000
兜风	-12.850000
兢	-14.686222
兢兢业业	-13.186220
兢兢乾乾	-12.850000
兢兢干干	-12.850000
入	-7.771522
入不敷出	-12.850000
入世	-12.625918
入主	-11.861955
入仓	-12.850000
入伍	-12.403630
入伙	-12.606744
入会	-12.850000
入侵	-10.457842
入侵者	-12.860386
入保	-12.850000
入关	-12.163817
入内	-12.850000
入口	-11.142355
入口处	-12.856070
入吾彀中	-12.850000
入味儿	-12.850000
入国问禁	-12.850000
入土	-12.109270
入土为安	-12.850000
入地无门	-12.850000
入场	-12.117270
入场券	-12.850000
入境	-11.140561
入境问禁	-12.850000
入夜	-12.831643
入孝出弟	-12.850000
入学	-11.433219
入学率	-11.857521
入射	-12.850000
入川	-12.612866
入市	-11.313217
入库	-12.411551
入座	-12.634956
入戏	-12.850000
入手	-11.992325
入木三分	-12.850000
入档	-12.850000
入汛	-12.850000
入海	-11.258084
入海口	-12.857429
入海算沙	-12.850000
入港	-12.850000
入火赴汤	-12.850000
入狱	-11.969516
入理切情	-12.850000
入睡	-11.766207
入竟问禁	-12.850000
入籍	-12.406835
入网	-12.850000
入行	-12.850000
入选	-11.700349
入邪	-12.850000
入铁主簿	-12.850000
入镜	-12.850000
入门	-11.906890
入骨	-12.417533
入骨相思	-12.850000
內	-14.686172
全	-7.738723
全世界	-10.343117
全书	-11.172751
全价	-12.850000
全份	-12.850000
全休	-12.850000
全会	-10.906330
全体	-9.482668
全党	-10.518443
全军	-10.846746
全军覆没	-12.602845
全冠清	-13.186178
全副	-12.850000
全副武装	-13.186172
全力	-10.794106
全力以赴	-12.852813
全功尽弃	-12.850000
全区	-11.789531
全县	-11.156710
全名	-12.850000
全员	-12.850000
全国	-7.232248
全国人大	-9.231545
全国人大常委会	-9.208022
全国人民代表大会	-8.661483
全国人民代表大会常务委员会	-9.293611
全国代表大会	-11.369074
全国性	-11.303349
全国政协	-10.872028
全场	-12.118146
全城	-11.598126
全境	-10.763554
全天候	-12.402824
全家	-11.110399
全家人	-12.633018
全家福	-12.853488
全局	-11.202428
全岛	-12.619874
全州	-12.442771
全市	-8.872731
全年	-10.045177
全心全意	-12.402832
全数	-12.850000
全文	-11.101117
全新	-11.412457
全方位	-11.758541
全日	-12.850000
全日制	-12.852925
全景	-12.611774
全智全能	-12.850000
全权	-12.436707
全权代表	-11.191219
全村	-12.629302
全校	-12.414124
全民	-11.058721
全然	-10.954985
全班	-12.338104
全球	-9.593223
全球化	-11.193017
全盘	-11.976839
全盛	-12.850000
全省	-8.579373
全知全能	-12.850000
全票	-12.850000
全称	-11.604171
全程	-11.973607
全线	-12.426579
全聚德	-12.602859
全胜	-12.619926
全能	-12.850000
全能全智	-12.850000
全能冠军	-12.850000
全能运动	-12.850000
全自动	-12.850000
全责	-12.850000
全身	-9.959748
全身远害	-12.850000
全过程	-12.246243
全运会	-12.850000
全邦	-11.586964
全部	-8.669976
全都	-10.401830
全长	-10.312012
全面	-8.907145
全食	-12.850000
八	-8.510571
八一	-11.249229
八七	-12.415149
八万四千	-12.850000
八万斤	-12.236344
八个	-11.064971
八九	-12.286019
八九个	-13.008953
八五	-11.514351
八仙	-12.860849
八仙过海	-12.850000
八十	-11.133896
八千	-12.667751
八卦	-11.506309
八卦教	-12.850000
八名	-12.613684
八哥	-12.240348
八国联军	-10.658925
八大	-11.767411
八大山人	-12.850000
八大胡同	-12.850000
八大行星	-12.850000
八字打开	-12.850000
八宝	-12.721914
八尺	-12.854974
八届	-11.913574
八年	-9.900232
八成	-12.418243
八戒	-10.568276
八抬大轿	-12.850000
八斗之才	-12.850000
八斗才	-12.850000
八方呼应	-12.850000
八方风雨	-12.850000
八旗	-11.668747
八旗子弟	-12.850000
八月	-10.497139
八月节	-12.850000
八珍玉食	-12.850000
八百	-12.104847
八级	-12.617177
八纮同轨	-12.850000
八股	-12.277989
八节	-12.850000
八行书	-12.850000
八角	-11.508821
八角帽	-12.402910
八角茴香	-12.850000
八路军	-11.305509
八达岭	-13.186160
八邪	-12.850000
八难三灾	-12.850000
八面	-12.627221
八面威风	-12.850000
八面见光	-12.850000
八面驶风	-12.850000
八风	-12.850000
公	-8.468014
公主	-9.595906
公了	-12.850000
公交车	-12.602842
公仆	-12.604436
公休	-12.850000
公休日	-12.850000
公众	-9.974368
公众网	-12.605947
公众股	-12.605430
公会	-11.897731
公使	-11.207229
公使衔	-13.186438
公使馆	-12.854086
公侯	-12.850000
公倍数	-12.850000
公债	-12.849520
公债券	-12.850000
公假	-12.850000
公元	-9.222803
公元前	-9.530650
公公	-10.933541
公共	-9.572293
公共事业	-12.850000
公共交通	-12.850000
公共关系	-12.850000
公共卫生	-12.850000
公共厕所	-12.850000
公共场所	-12.853900
公共建筑	-12.850000
公共汽车	-12.850000
公共秩序	-12.850000
公共积累	-12.850000
公共课	-12.850000
公关	-11.974833
公凸	-12.603634
公分	-12.850000
公分子	-12.850000
公切线	-12.850000
公办	-12.246604
公务	-11.138928
公务员	-10.568059
公助	-12.850000
公卿	-12.237435
公司	-7.177860
公司债券	-12.850000
公听并观	-12.850000
公告	-10.408845
公园	-9.571080
公地	-12.850000
公婆	-12.604389
公子	-10.335662
公子王孙	-12.850000
公孙	-11.508502
公孙止	-11.857295
公孙绿	-13.186895
公孙胜	-13.186853
公安	-10.167154
公安县	-11.860820
公安局	-11.435147
公安部	-11.970069
公安部门	-12.406862
公安部队	-12.405540
公害	-12.608730
公家	-12.850000
公寓	-11.434844
公尺	-12.850000
公岩	-12.859690
公差	-12.410770
公布	-9.277034
公帑	-12.850000
公干	-12.850000
公平	-10.914525
公平合理	-12.850000
公开	-9.406963
公开信	-12.850000
公开赛	-12.856304
公式	-10.873734
公式化	-12.850000
公德	-12.420269
公忠体国	-12.850000
公报	-11.143268
公报私仇	-12.850000
公担	-12.850000
公教人员	-12.850000
公文	-11.508580
公文旅行	-12.850000
公斤	-9.672015
公明正大	-12.850000
公有	-12.046949
公有制	-11.434796
公案	-12.407521
公款	-12.095753
公正	-11.212974
公正不阿	-12.850000
公正廉明	-12.850000
公正廉洁	-12.850000
公正无私	-12.850000
公民	-8.582124
公民投票	-12.850000
公然	-11.585844
公爵	-11.583384
公牛	-12.866413
公猫	-12.850000
公理	-11.586630
公生桥	-11.582955
公生门	-13.186238
公用	-11.900374
公畜	-12.850000
公益	-12.238297
公社	-10.759163
公祭	-12.850000
公私	-12.607203
公私两便	-12.850000
公私两济	-12.850000
公私合营	-12.850000
公积金	-11.582948
公称	-12.850000
公立	-11.975162
公立学校	-12.850000
公章	-12.866895
公约	-10.875180
公约数	-12.850000
公羊	-12.850000
公职	-11.669648
公职人员	-12.850000
公认	-11.558326
公论	-12.850000
公证	-12.097311
公诸	-12.850000
公诸同好	-12.850000
公路	-8.897465
公路桥	-12.242361
公路网	-12.410096
公车	-12.443896
公转	-12.620735
公道	-11.026398
公道合理	-12.850000
公里	-8.519225
公顷	-11.505149
六	-8.431050
六一	-12.850000
六七	-11.539021
六七个	-12.862385
六世	-12.850000
六个	-11.021067
六中全会	-12.852826
六书	-12.850000
六亲	-12.850000
六亲不认	-12.850000
六亲无靠	-12.850000
六位	-11.766573
六六六	-12.850000
六出奇计	-12.850000
六出纷飞	-12.850000
六十	-11.148417
六十四	-12.878647
六号	-12.850000
六合	-11.763115
六合之内	-12.850000
六大	-12.046924
六安	-12.850000
六尘不染	-12.850000
六尺之孤	-12.850000
六尺之讬	-12.850000
六届	-12.525687
六岁	-12.769941
六师	-12.850000
六年	-10.666347
六弦琴	-12.850000
六指	-12.850000
六指儿	-12.850000
六月	-11.276310
六月雪	-12.850000
六月飞霜	-12.850000
六朝	-12.621913
六朝金粉	-12.850000
六期	-12.101627
六根	-12.850000
六根清净	-12.850000
六根清静	-12.850000
六欲	-12.850000
六甲	-12.850000
六畜	-12.850000
六畜不安	-12.850000
六畜兴旺	-12.850000
六百	-12.243458
六盘山	-12.602832
六礼	-12.850000
六祖	-12.850000
六神	-12.850000
六神不安	-12.850000
六神无主	-12.850000
六级	-12.415262
六经	-12.850000
六腑	-12.850000
六臂三头	-12.850000
六艺	-12.850000
六街三市	-12.850000
六街三陌	-12.850000
六角	-11.861561
六趣轮回	-12.850000
六路	-12.320883
六边形	-12.850000
六通四辟	-12.850000
六通四达	-12.850000
六道轮回	-12.850000
六部	-11.176597
六门	-12.434635
六问三推	-12.850000
六韬三略	-12.850000
六马仰秣	-12.850000
兮	-11.857199
兰	-9.463675
兰世立	-12.852817
兰州	-11.307660
兰州大学	-12.850000
兰德	-11.995242
兰摧玉折	-12.850000
兰桂齐芳	-12.850000
兰湖	-12.861288
兰溪	-12.854164
兰熏桂馥	-12.850000
兰艾同焚	-12.850000
兰艾难分	-12.850000
兰芝	-12.236444
兰花	-12.098870
兰若	-12.850000
兰草	-12.850000
兰质熏心	-12.850000
兰陵王	-12.850000
共	-7.817790
共为唇齿	-12.850000
共事	-12.850000
共产主义	-11.088409
共产党	-9.712728
共产党人	-11.540993
共产党员	-11.584123
共产国际	-11.367942
共享	-11.200803
共价	-12.850000
共价键	-12.850000
共勉	-12.850000
共同	-8.722300
共同体	-12.102157
共同富裕	-12.850000
共同市场	-12.850000
共同性	-12.850000
共同犯罪	-12.850000
共同社	-12.850000
共同纲领	-12.603956
共同语	-12.850000
共同语言	-12.850000
共和	-10.381212
共和党	-12.096056
共和制	-12.850000
共和国	-9.911505
共商国是	-12.850000
共处	-12.850000
共存	-12.869706
共存亡	-12.850000
共居	-12.850000
共度	-12.850000
共建	-12.057366
共性	-12.850000
共总	-12.850000
共患难	-13.187341
共振	-12.857623
共振器	-12.850000
共挽鹿车	-12.850000
共有	-11.714586
共枝别干	-12.850000
共栖	-12.850000
共济	-12.850000
共犯	-12.850000
共生	-11.788808
共生矿	-12.850000
共用	-12.850000
共相	-12.850000
共管	-12.850000
共线	-12.850000
共聚	-12.850000
共聚物	-12.850000
共荣	-12.850000
共计	-11.672123
共议	-12.850000
共识	-11.103404
共话	-12.850000
共谋	-12.850000
共贯同条	-12.850000
共进会	-12.850000
共通	-12.850000
共青团	-12.403057
共青团员	-12.850000
共餐	-12.850000
共鸣	-12.850000
共鸣器	-12.850000
关	-8.616266
关上	-11.363523
关东	-11.671040
关东军	-12.094217
关中	-12.850000
关于	-8.497858
关停并转	-12.850000
关公	-11.646302
关内	-11.897328
关切	-12.239399
关卡	-12.850000
关口	-12.254226
关塞	-12.850000
关外	-11.773492
关头	-11.519646
关宁兵	-12.852852
关山	-11.988826
关岛	-12.611960
关帝庙	-13.186142
关心	-9.930734
关怀	-11.765948
关情脉脉	-12.850000
关押	-11.858109
关明梅	-13.186148
关注	-9.560726
关洪野	-12.852787
关照	-12.745691
关税	-11.638438
关系	-7.587116
关系人	-11.878095
关系学	-12.850000
关系户	-12.850000
关系网	-12.850000
关羽	-12.604267
关联	-11.900864
关联方	-13.187516
关节	-10.842874
关节炎	-12.850000
关节点	-12.850000
关节痛	-12.850000
关键	-9.325677
关键期	-12.850000
关门	-11.378836
关门大吉	-12.850000
关门打狗	-12.850000
关门落闩	-12.850000
关门闭户	-12.850000
关闭	-10.432924
关隘	-13.186872
兴	-9.014507
兴业	-12.850000
兴中会	-12.853194
兴义	-12.850000
兴云致雨	-12.850000
兴亡	-12.404726
兴亡祸福	-12.850000
兴亡继绝	-12.850000
兴会	-12.850000
兴会淋漓	-12.850000
兴修	-12.407283
兴兵	-12.850000
兴兵动众	-12.850000
兴冲冲	-12.852817
兴利除弊	-12.850000
兴办	-12.098510
兴化	-12.850000
兴叹	-12.850000
兴味	-12.850000
兴味索然	-12.850000
兴国	-11.030032
兴城	-12.850000
兴头	-12.850000
兴头儿上	-12.850000
兴奋	-10.039845
兴奋剂	-12.603896
兴如嚼蜡	-12.850000
兴妖作乱	-12.850000
兴妖作孽	-12.850000
兴妖作怪	-12.850000
兴学	-12.850000
兴安	-12.045877
兴家立业	-12.850000
兴山县	-12.853242
兴工	-12.850000
兴师	-12.850000
兴师动众	-12.850000
兴师问罪	-12.850000
兴平	-12.850000
兴废	-12.850000
兴废继绝	-12.850000
兴建	-10.569151
兴微继绝	-12.850000
兴文	-12.850000
兴文匽武	-12.850000
兴旺	-11.968657
兴旺发达	-13.186522
兴替	-12.850000
兴灭继绝	-12.850000
兴盛	-11.758840
兴筑	-12.850000
兴致	-12.405405
兴致勃勃	-13.186172
兴致淋漓	-12.850000
兴致索然	-12.850000
兴衰	-11.375729
兴观群怨	-12.850000
兴许	-12.606091
兴讹造讪	-12.850000
兴词构讼	-12.850000
兴起	-10.270858
兴趣	-9.549848
兴趣盎然	-12.850000
兴邦	-12.850000
兴邦立国	-12.850000
兴隆	-12.605010
兴革	-12.850000
兴风作浪	-12.850000
兴高彩烈	-12.850000
兴高采烈	-13.186136
兵	-7.902195
兵丁	-12.871281
兵不厌权	-12.850000
兵不厌诈	-12.850000
兵不接刃	-12.850000
兵不污刃	-12.850000
兵不由将	-12.850000
兵不血刃	-13.186160
兵不雪刃	-12.850000
兵刃	-10.291464
兵制	-11.983526
兵力	-10.170437
兵卒	-12.863629
兵员	-12.850000
兵器	-10.873615
兵团	-10.348149
兵在其颈	-12.850000
兵士	-11.973869
兵多将广	-12.850000
兵家	-12.850000
兵家必争之地	-12.602849
兵工厂	-12.850000
兵差	-12.850000
兵强则灭	-12.850000
兵强将勇	-12.850000
兵强马壮	-13.186172
兵役	-11.971179
兵役制	-13.187293
兵役制度	-12.850000
兵微将寡	-12.850000
兵戎相见	-12.850000
兵拏祸结	-12.850000
兵无血刃	-12.850000
兵未血刃	-12.850000
兵权	-12.629765
兵火	-12.215838
兵种	-12.850000
兵行诡道	-12.850000
兵车	-12.850000
兵车之会	-12.850000
兵连祸结	-12.850000
兵部	-10.874813
兵马	-11.152677
兵马俑	-13.186196
其	-6.814011
其一	-11.097671
其不备	-12.853012
其中	-7.589890
其乐不穷	-12.850000
其乐无穷	-12.850000
其二	-12.221859
其人	-12.850000
其他	-7.881588
其余	-9.653011
其先	-12.850000
其内	-12.850000
其势汹汹	-12.850000
其后	-11.603249
其味无穷	-12.850000
其它	-9.020099
其实	-8.649630
其应如响	-12.850000
其应若响	-12.850000
其时	-11.400129
其次	-10.239898
其父	-11.675803
其貌不扬	-12.850000
其道亡繇	-12.850000
其道无由	-12.850000
其间	-10.585665
具	-8.974872
具体	-8.823467
具体劳动	-12.850000
具体而微	-12.850000
具备	-9.990181
具有	-7.811867
具结	-12.850000
典	-10.085156
典型	-9.733379
典型化	-12.850000
典妻鬻子	-12.850000
典当	-12.612726
典礼	-11.506612
典章	-12.094514
典籍	-11.968570
典范	-12.603329
典雅	-12.236711
兹	-10.539351
兹事体大	-12.850000
养	-9.144420
养伤	-12.861123
养分	-12.629304
养女	-12.850000
养家	-12.850000
养家活口	-12.850000
养家糊口	-12.850000
养尊处优	-12.850000
养心殿	-13.186184
养成	-11.870125
养殖	-10.206988
养殖场	-12.850000
养活	-12.239930
养父	-12.850000
养父母	-12.850000
养牛	-11.970956
养猪	-11.858237
养生丧死	-12.850000
养畜	-12.850000
养病	-12.611095
养精畜锐	-12.850000
养老	-12.252853
养老金	-13.187498
养育	-12.603595
养虎为患	-12.850000
养虺成蛇	-12.850000
养路工	-12.850000
养音九皋	-12.850000
兼	-8.897147
兼任	-11.194948
兼具	-12.407421
兼包并容	-12.850000
兼包并畜	-12.850000
兼及	-12.637856
兼听则明	-12.850000
兼备	-11.139018
兼官重绂	-12.850000
兼容	-12.605385
兼容并包	-12.850000
兼容并蓄	-12.850000
兼差	-12.850000
兼并	-11.690628
兼收博采	-12.850000
兼收并录	-12.850000
兼收并畜	-12.850000
兼收并蓄	-12.850000
兼收并采	-12.850000
兼有	-11.204500
兼朱重紫	-12.850000
兼程并进	-12.850000
兼管	-12.412928
兼而有之	-12.850000
兼职	-11.759691
兼营	-12.861082
兼顾	-11.507111
兽	-9.955975
兽医	-13.186690
兽类	-12.406342
兽聚鸟散	-12.850000
冀	-11.434067
冀鲁豫	-12.602754
内	-6.969268
内中	-12.850000
内乡	-12.850000
内乱	-11.543383
内争	-12.850000
内亲	-12.850000
内人	-12.850000
内传	-12.850000
内伤	-12.455129
内侄	-12.850000
内侄女	-12.850000
内侍	-12.241557
内侧	-11.882363
内侵	-12.850000
内修外攘	-12.850000
内债	-12.850000
内倾	-12.850000
内兄	-12.850000
内关	-12.850000
内出血	-12.850000
内分泌	-12.097251
内分泌科	-12.853367
内切圆	-12.850000
内力	-10.667411
内功	-10.839806
内务	-11.674465
内务司法委员会	-12.852864
内助	-12.850000
内助之贤	-12.850000
内勤	-12.850000
内化	-12.850000
内华达	-13.185895
内华达州	-12.853111
内参	-12.850000
内向	-12.850000
内向型	-12.850000
内含	-12.850000
内因	-12.850000
内圣外王	-12.850000
内在	-11.434162
内地	-10.353516
内城	-11.481161
内外	-10.626316
内外交困	-12.852821
内外夹攻	-12.850000
内奸	-12.850000
内子	-12.850000
内存	-11.253104
内宅	-12.850000
内定	-12.850000
内室	-12.850000
内容	-8.339353
内容提要	-12.850000
内宾	-12.850000
内层	-12.850000
内屋	-12.850000
内峻外和	-12.850000
内幕	-12.850000
内应	-12.850000
内府	-12.850000
内庭	-12.850000
内廷	-12.850000
内弟	-12.850000
内当家	-12.850000
内径	-12.850000
内心	-10.216054
内心世界	-12.850000
内心里	-12.850000
内忧	-12.850000
内忧外侮	-12.850000
内忧外患	-12.850000
内急	-12.850000
内情	-12.850000
内愧	-12.850000
内战	-10.701433
内掌柜	-12.850000
内控	-12.850000
内政	-11.512858
内斜视	-12.850000
内景	-12.850000
内服	-12.872299
内果皮	-12.850000
内柔外刚	-12.850000
内查外调	-12.850000
内核	-12.850000
内河	-10.693227
内海	-12.850000
内涝	-12.850000
内涵	-11.191870
内港	-12.850000
内热	-12.850000
内焰	-12.850000
内燃机	-12.850000
内犯	-12.850000
内瓤	-12.850000
内画	-12.850000
内疚	-13.187745
内痔	-12.850000
内省	-12.850000
内省不疚	-12.850000
内眷	-12.850000
内秀	-12.850000
内科	-12.850000
内紧外松	-12.850000
内线	-12.850000
内耗	-12.850000
内耳	-12.850000
内聚力	-12.850000
内胎	-12.850000
内脏	-12.240149
内臣	-12.850000
内蒙古	-10.695036
内蒙古自治区	-12.237182
内蒙古高原	-13.188378
内蕴	-12.850000
内藏	-12.850000
内行	-12.850000
内衣	-12.850000
内装修	-12.850000
内裤	-12.860308
内视反听	-12.850000
内讧	-11.368036
内详	-12.850000
内贸	-12.850000
内资	-12.850000
内迁	-12.850000
内退	-12.850000
内道	-12.850000
内部	-9.160399
内部矛盾	-12.850000
内里	-12.850000
内销	-12.850000
内阁	-10.046145
内陆	-10.834641
内陆国	-12.850000
内陆河	-12.850000
内陆海	-12.850000
内陆湖	-12.850000
内院	-12.850000
内陷	-12.850000
内障	-12.850000
内难	-12.850000
内面	-12.850000
内顾之忧	-12.850000
冈	-10.658617
冉	-13.686209
冉冉	-12.852839
册	-10.477950
册子	-12.850000
册封	-12.237137
册立	-12.604649
再	-7.008367
再一次	-12.850000
再三	-11.404916
再不	-12.850000
再不其然	-12.850000
再不然	-12.850000
再也	-9.749990
再会	-12.850000
再作冯妇	-12.850000
再分	-12.850000
再别康桥	-12.850000
再娶	-12.850000
再就业	-12.850000
再度	-10.811574
再教育	-12.850000
再有	-12.850000
再植	-12.850000
再次	-9.533788
再生	-11.680774
再生产	-11.472093
再生父母	-12.850000
再行	-12.850000
再衰三涸	-12.850000
再衰三竭	-12.850000
再见	-11.355783
再认识	-12.850000
再议	-12.850000
再说	-10.005960
冒	-9.482416
冒充	-11.921712
冒冒失失	-12.850000
冒功	-12.850000
冒号	-12.850000
冒名	-12.850000
冒名接脚	-12.850000
冒名顶替	-12.850000
冒大不韪	-12.850000
冒失	-12.850000
冒失鬼	-12.850000
冒头	-12.850000
冒尖	-12.850000
冒尖户	-12.850000
冒昧	-12.853021
冒死	-12.850000
冒汗	-12.850000
冒泡	-12.850000
冒渎	-12.850000
冒火	-12.850000
冒烟	-12.405208
冒牌	-12.850000
冒牌货	-12.850000
冒犯	-11.583643
冒着	-12.850000
冒起火苗	-12.850000
冒进	-12.850000
冒险	-11.088949
冒险主义	-12.403187
冒险家	-12.850000
冒雨	-12.850000
冒顶	-12.850000
冒顿	-12.850000
冒领	-12.850000
冒风险	-12.850000
冓	-14.686273
冕	-12.402784
冗	-12.402858
冗员	-12.850000
冗繁	-12.850000
冗词赘句	-12.850000
冗长	-12.850000
写	-8.192174
写下	-11.074913
写作	-10.559399
写信	-11.591346
写出	-11.201018
写字台	-13.186184
写字楼	-13.186190
写字间	-12.850000
写实	-12.618767
写家	-12.850000
写成	-11.456320
写景	-12.850000
写本	-12.288762
写道	-11.300452
军	-7.525304
军不血刃	-12.850000
军中	-11.113810
军乐	-12.850000
军乐团	-12.850000
军乐队	-12.850000
军事	-8.251901
军事体育	-12.850000
军事基地	-12.850000
军事检察院	-12.097843
军事法院	-11.969735
军事科学院	-12.604548
军人	-10.022306
军代表	-12.850000
军令	-12.258954
军令如山	-12.850000
军令状	-12.853138
军兵种	-12.602859
军分区	-12.850000
军力	-11.925325
军务	-12.409256
军区	-10.637094
军史	-12.850000
军号	-12.850000
军品	-12.850000
军售	-12.243448
军团	-11.499125
军国主义	-13.186160
军地	-12.850000
军士	-11.088657
军备	-12.300747
军大衣	-12.850000
军委	-11.943134
军委会	-11.759953
军姿	-12.850000
军官	-10.309811
军容	-12.415539
军属	-12.850000
军工	-12.107312
军工厂	-12.850000
军师	-11.100754
军帐	-12.880983
军帖	-12.850000
军心	-11.733746
军情	-11.430159
军控	-12.857141
军政	-11.305264
军政府	-12.132788
军方	-10.516092
军旅	-12.702603
军服	-12.889901
军机	-11.879026
军机处	-12.850000
军校	-11.672624
军械	-11.757666
军民	-10.696140
军民共建	-13.186293
军法从事	-12.850000
军港	-12.850000
军火	-11.584743
军火商	-12.850000
军烈属	-12.850000
军用	-10.939562
军种	-12.284139
军管会	-12.850000
军纪	-12.407721
军舰	-11.140681
军营	-11.675557
军衔	-12.407706
军装	-12.084218
军警	-9.696564
军训	-11.859996
军费	-11.592824
军车	-12.850000
军转民	-12.850000
军长	-11.803068
军阀	-9.958169
军队	-8.682727
军需	-12.251881
军风	-12.850000
军饷	-12.236833
军马	-11.329856
农	-9.389299
农业	-8.266039
农业与农村委员会	-12.402814
农业化	-12.850000
农业区	-12.270047
农业社	-12.850000
农业部	-11.425075
农业部渔业局	-12.381618
农业银行	-12.870852
农产	-12.405952
农产品	-10.569102
农会	-12.850000
农作物	-10.831896
农具	-12.324017
农副业	-12.850000
农副产品	-12.852830
农历	-12.094273
农场	-11.508176
农场主	-12.604068
农垦	-12.853038
农夫	-12.405675
农奴	-11.367909
农奴制	-12.403680
农家	-12.108560
农家乐	-12.093496
农家肥	-12.850000
农工商	-12.850000
农户	-11.969945
农机	-12.408860
农机具	-12.850000
农机站	-12.850000
农村	-8.774312
农林牧渔业	-12.602873
农校	-12.850000
农民	-8.617916
农民协会	-12.850000
农民工	-12.240103
农民战争	-12.850000
农民起义	-12.606254
农活儿	-12.850000
农牧	-12.670595
农牧业	-12.853213
农用	-11.988604
农田	-11.507379
农田水利	-12.236233
农畜	-12.850000
农耕	-11.968647
农舍	-12.850000
农艺师	-12.850000
农药	-12.239673
农行	-12.414836
农贸市场	-12.852830
农转非	-12.850000
农轻重	-12.850000
冠	-9.853951
冠上加冠	-12.850000
冠上履下	-12.850000
冠以	-11.569351
冠冕	-12.850000
冠冕堂皇	-12.850000
冠军	-10.124182
冠军杯	-12.236678
冠名	-12.613232
冠子	-12.850000
冠履倒易	-12.850000
冠履倒置	-12.850000
冠屦倒施	-12.850000
冠山戴粒	-12.850000
冠心病	-12.402842
冠状动脉	-13.186172
冠状静脉	-12.850000
冠玉	-12.850000
冠盖	-12.850000
冠盖云集	-12.850000
冠盖如云	-12.850000
冠盖相属	-12.850000
冠盖相望	-12.850000
冠礼	-12.850000
冠绝一时	-12.850000
冠袍带履	-12.850000
冢	-11.857187
冢中枯骨	-12.850000
冤	-10.793511
冤仇	-12.850000
冤假错案	-12.602803
冤冤相报	-12.850000
冤大头	-12.850000
冤天屈地	-12.850000
冤头	-12.850000
冤家	-12.609355
冤家对头	-12.850000
冤家路狭	-12.850000
冤家路窄	-12.850000
冤枉	-11.857259
冤案	-13.187257
冤沉海底	-12.850000
冤狱	-13.186395
冥	-11.305411
冥思	-12.850000
冥思苦想	-12.850000
冥思苦索	-12.850000
冥昭瞢闇	-12.850000
冥漠之都	-12.850000
冥王星	-13.186148
冥行擿埴	-12.850000
冥行盲索	-12.850000
冥顽不化	-12.850000
冥顽不灵	-12.850000
冦	-13.186205
冧	-12.236160
冨	-12.093334
冩	-12.602839
冪	-12.602852
冬	-9.767837
冬不拉	-12.850000
冬令	-12.850000
冬令营	-12.850000
冬天	-11.100142
冬季	-10.695559
冬扇夏炉	-12.850000
冬日可爱	-12.850000
冬烘头脑	-12.850000
冬瓜	-12.603193
冬种	-12.850000
冬练	-12.850000
冬节	-12.850000
冬藏	-12.850000
冬裘夏葛	-12.850000
冬贮	-12.850000
冭	-13.686152
冮	-12.402830
冯	-10.511584
冯之浚	-12.602818
冯云乔	-13.186154
冯保一	-13.186166
冯保听	-13.186148
冯公公	-12.602981
冯唐头白	-12.850000
冯唐已老	-12.850000
冯唐易老	-12.850000
冯唐白首	-12.850000
冯敏杰	-12.852856
冯文修	-12.602818
冯河	-12.850000
冯河暴虎	-12.850000
冯玉祥	-12.236160
冯生弹铗	-12.850000
冯锡范	-12.236138
冯驩弹铗	-12.850000
冯默风	-12.852843
冰	-9.374767
冰上运动	-12.850000
冰冷	-12.095158
冰凉	-12.403822
冰原	-12.864908
冰场	-12.850000
冰块	-12.858219
冰坨	-12.850000
冰天雪地	-13.186142
冰山	-12.104334
冰山易倒	-12.850000
冰山难靠	-12.850000
冰岛	-12.858500
冰川	-10.383389
冰川期	-12.850000
冰心一片	-12.850000
冰排	-12.850000
冰散瓦解	-12.850000
冰斗	-12.850000
冰期	-12.181666
冰棍	-12.850000
冰棍儿	-12.850000
冰河期	-12.850000
冰消云散	-12.850000
冰消冻解	-12.850000
冰消瓦解	-12.850000
冰消雾散	-12.850000
冰淇淋	-12.850000
冰溜	-12.850000
冰激凌	-13.186160
冰炭不投	-12.850000
冰片	-12.850000
冰碛	-12.602832
冰碴儿	-12.850000
冰箱	-12.094083
冰糖葫芦	-13.186172
冰肌玉骨	-12.850000
冰解云散	-12.850000
冰解冻释	-12.850000
冰解壤分	-12.850000
冰解的破	-12.850000
冰车	-12.850000
冰道	-12.850000
冰销叶散	-12.850000
冰销雾散	-12.850000
冰雪	-11.507052
冰雪节	-12.850000
冰雹	-12.852925
冲	-8.781218
冲云破雾	-12.850000
冲克	-12.850000
冲冠发怒	-12.850000
冲冠怒发	-12.850000
冲冠眦裂	-12.850000
冲冲	-12.850000
冲决	-12.850000
冲凉	-12.850000
冲出	-12.024005
冲击	-10.291521
冲击力	-12.606368
冲击波	-12.850000
冲刷	-12.850000
冲刺	-12.850000
冲剂	-12.850000
冲力	-12.850000
冲动	-11.372023
冲劲	-12.850000
冲劲儿	-12.850000
冲压	-12.850000
冲口	-12.850000
冲口而出	-12.850000
冲喜	-12.850000
冲坚毁锐	-12.850000
冲塌	-12.850000
冲天	-12.119083
冲天炮	-12.850000
冲子	-12.850000
冲孔	-12.850000
冲州撞府	-12.850000
冲州过府	-12.850000
冲帐	-12.850000
冲床	-12.850000
冲开	-11.984324
冲扩	-12.850000
冲抵	-12.850000
冲撞	-12.850000
冲散	-12.850000
冲昏头脑	-12.850000
冲服	-12.850000
冲杀	-12.618453
冲模	-12.850000
冲毁	-12.850000
冲水	-12.850000
冲洗	-11.858841
冲浪	-12.850000
冲浪板	-12.850000
冲淡	-12.850000
冲激	-12.850000
冲犯	-12.850000
冲盹儿	-12.850000
冲着	-11.818829
冲破	-11.437557
冲积	-12.238197
冲积平原	-12.236295
冲积扇	-12.852956
冲突	-10.006414
冲绳	-12.604385
冲脉	-12.850000
冲腾	-12.850000
冲虚	-12.607706
冲要	-12.850000
冲账	-12.850000
冲走	-12.437089
冲量	-12.850000
冲销	-12.850000
冲锋	-12.093902
冲锋号	-12.850000
冲锋枪	-12.093469
冲锋队	-12.850000
冲锋陷坚	-12.850000
冲锋陷锐	-12.850000
冲锋陷阵	-13.186148
冲阳	-12.850000
冲顶	-12.850000
冲风冒雨	-12.850000
冲风破浪	-12.850000
决	-9.346965
决一死战	-12.852886
决不	-11.370006
决不会	-12.245795
决不待时	-12.850000
决不能	-12.248710
决别	-12.850000
决定	-7.663436
决定性	-11.465556
决定权	-12.850000
决定论	-12.850000
决心	-10.249361
决意	-12.409625
决战	-11.192574
决斗	-12.850000
决断	-12.407084
决疣溃痈	-12.850000
决策	-9.926439
决策者	-12.097980
决算	-12.096034
决裂	-12.850000
决计	-11.041471
决议	-9.192582
决议案	-12.095605
决赛	-10.458349
决非	-11.860979
况	-11.244412
况且	-11.138578
冶	-11.853319
冶叶倡条	-12.850000
冶炼	-11.506058
冶金	-10.568076
冷	-9.082865
冷不丁	-12.850000
冷不防	-12.852856
冷兵器	-12.603544
冷冷	-12.601239
冷冷的	-11.970999
冷冻	-12.603362
冷凝器	-12.850000
冷却	-11.872371
冷嘲	-12.850000
冷嘲热讽	-12.852821
冷嘲热骂	-12.850000
冷场	-12.850000
冷处理	-12.850000
冷战	-12.098330
冷暖自知	-12.850000
冷杉	-12.850000
冷柜	-12.850000
冷气	-12.620495
冷水	-12.255156
冷水浇头	-12.850000
冷水浇背	-12.850000
冷水澡	-12.850000
冷汗	-11.306087
冷淡	-12.237186
冷漠	-12.236437
冷热	-12.866144
冷眼旁观	-12.850000
冷眼相待	-12.850000
冷眼静看	-12.850000
冷笑	-10.149766
冷色	-12.850000
冷若冰霜	-12.850000
冷落	-12.408899
冷藏	-12.850000
冷藏室	-12.850000
冷藏库	-12.850000
冷血	-12.850000
冷血动物	-12.850000
冷言冷语	-12.850000
冷言热语	-12.850000
冷语	-12.850000
冷语冰人	-12.850000
冷酷	-12.403204
冷静	-11.247062
冷颤	-12.850000
冷风	-12.617113
冷食	-12.850000
冻	-11.190013
冻伤	-13.187709
冻儿	-12.850000
冻土	-12.403530
冻结	-12.236503
冻裂	-12.850000
冻解冰释	-12.850000
冻雨	-12.850000
冼	-14.686172
冽	-14.686213
净	-10.054903
净产值	-12.850000
净价	-12.850000
净余	-12.850000
净利	-12.850000
净利润	-12.403594
净化	-11.759082
净口	-12.850000
净土	-12.850000
净增	-12.850000
净室	-12.850000
净尽	-12.850000
净得	-12.850000
净心	-12.850000
净手	-12.850000
净是	-12.850000
净桶	-12.850000
净水	-12.842726
净空	-12.850000
净胜	-12.850000
净菜	-12.850000
净资产	-12.236551
净赚	-12.850000
净身	-12.850000
净重	-12.850000
净高	-12.850000
凄	-12.194908
凄凉	-11.857215
凄切	-12.850000
凄厉	-12.852839
凄惨	-13.084213
凄楚	-12.603018
凄然	-12.403024
凄风冷雨	-12.850000
凄风寒雨	-12.850000
凄风楚雨	-12.850000
凄风苦雨	-12.850000
准	-9.404770
准予	-13.187088
准信	-12.850000
准信儿	-12.850000
准假	-12.850000
准入	-12.718424
准则	-11.249869
准噶尔	-13.186101
准备	-8.383777
准头	-12.850000
准将	-12.850000
准尉	-12.850000
准据	-12.850000
准数	-12.850000
准时	-12.247328
准是	-12.850000
准确	-10.124183
准绳	-12.853912
准许	-12.850000
准高速	-12.850000
凇	-13.686152
凈	-14.686122
凉	-10.030476
凉一凉	-12.850000
凉丝丝	-12.850000
凉了半截	-12.850000
凉亭	-13.187926
凉冰冰	-12.850000
凉台	-12.850000
凉州	-12.859328
凉席	-12.850000
凉帽	-12.850000
凉快	-12.850000
凉意	-12.850000
凉拌	-12.850000
凉棚	-12.850000
凉气	-12.850000
凉水	-12.027949
凉爽	-12.093536
凉白开	-12.850000
凉粉	-12.850000
凉药	-12.850000
凉菜	-12.850000
凉面	-12.850000
凉鞋	-12.850000
凉风	-12.850000
凉飕飕	-12.850000
凋	-13.186005
凋落	-12.850000
凌	-10.830961
凌上虐下	-12.850000
凌云壮志	-12.850000
凌厉	-12.093381
凌弱暴寡	-12.850000
凌晨	-11.666327
凌空	-12.237142
凌辱	-11.583009
凌迟	-12.403071
凌退思	-12.852852
减	-10.147407
减亏	-12.850000
减亏增盈	-12.850000
减产	-12.094444
减价	-12.850000
减值	-12.604250
减免	-12.291820
减刑	-13.187407
减压阀	-12.850000
减去	-12.419286
减小	-11.764872
减少	-9.215086
减弱	-11.583220
减征	-12.850000
减息	-13.187462
减慢	-12.603470
减持	-13.188306
减振	-12.603183
减收	-12.850000
减数	-12.850000
减省	-12.850000
减租	-13.187420
减肥	-11.506270
减至	-12.864674
减轻	-10.724978
减退	-12.855515
减速	-12.853869
凑	-10.567284
凑乎	-12.850000
凑份子	-12.850000
凑合	-12.855125
凑巧	-12.403152
凑数	-12.850000
凑趣	-12.850000
凑近	-12.856478
凛	-11.666147
凛冽	-12.852843
凛凛	-13.186206
凛然	-12.403089
凛若冰霜	-12.850000
凛若秋霜	-12.850000
凝	-10.687464
凝华	-12.850000
凝合	-12.850000
凝固	-11.857354
凝思	-12.850000
凝瞩不转	-12.850000
凝神	-11.306083
凝结	-12.853991
凝聚	-11.434757
凝胶	-12.246474
凝血酶	-12.850000
凝视	-11.246752
凝重	-12.094924
凝集	-13.188330
几	-8.347521
几万	-11.592823
几下	-11.168027
几不欲生	-12.850000
几丝	-12.862329
几个	-8.476842
几乎	-8.889658
几乎不	-12.850000
几代	-12.869102
几件	-11.509233
几位	-10.967880
几何	-10.911745
几何学	-12.238180
几儿	-12.850000
几内亚	-12.093272
几内亚比绍	-13.186175
几分	-10.974013
几分钟	-12.242058
几十	-10.542031
几十万	-11.759770
几十个	-12.875731
几十块	-13.188619
几十年	-11.002555
几千	-11.151580
几千年	-11.673684
几句	-9.733690
几只	-11.913223
几名	-11.863841
几块	-12.555653
几声	-11.312682
几处	-12.116366
几多	-12.850000
几天	-9.770644
几套	-12.372507
几层	-12.842515
几希	-12.850000
几年	-9.527853
几度	-12.850000
几座	-12.820395
几张	-12.106633
几微	-12.850000
几支	-12.865806
几日	-11.168619
几时	-12.850000
几曾	-12.850000
几条	-12.089983
几杯	-12.607172
几样	-12.787946
几根	-12.412465
几案	-12.850000
几棵	-13.188221
几次	-10.024796
几次三番	-12.850000
几步	-10.641923
几点	-11.877006
几率	-11.975898
几百	-11.436496
几百万	-12.608626
几百名	-12.605557
几百年	-11.439336
几百斤	-12.853029
几眼	-12.627969
几种	-10.354841
几篇	-12.862198
几米	-12.435308
几经	-11.770367
几至	-12.850000
几许	-12.850000
几起几落	-12.850000
几遍	-12.095371
几道	-11.656365
几颗	-12.539045
凡	-9.095048
凡事	-12.428576
凡夫	-12.850000
凡夫俗子	-12.850000
凡夫肉眼	-12.850000
凡尔丁	-12.850000
凡尔登	-13.186184
凡才浅识	-12.850000
凡是	-10.378139
凡胎浊体	-12.850000
凡胎浊骨	-12.850000
凡间	-12.850000
凤	-10.164128
凤一鸣	-13.186160
凤冠	-12.603454
凤冠霞帔	-12.850000
凤凰	-10.909454
凤凰山	-12.606942
凤协鸾和	-12.850000
凤只鸾孤	-12.850000
凤台	-12.850000
凤天南	-12.602849
凤姐儿	-12.602797
凤子龙孙	-12.850000
凤尾	-12.850000
凤尾竹	-12.850000
凤尾草	-12.850000
凤尾鱼	-12.850000
凤山	-12.428432
凤枭同巢	-12.850000
凤楼龙阙	-12.850000
凤毛济美	-12.850000
凤毛麟角	-12.850000
凤泊鸾漂	-12.850000
凤泊鸾飘	-12.850000
凤爪	-12.850000
凤采鸾章	-12.850000
凤靡鸾吪	-12.850000
凤食鸾栖	-12.850000
凤骨龙姿	-12.850000
凤鸣朝阳	-12.850000
処	-14.686172
凫	-13.186184
凫短鹤长	-12.850000
凫趋雀跃	-12.850000
凫鹤从方	-12.850000
凭	-9.288358
凭信	-12.850000
凭借	-10.598372
凭几之诏	-12.850000
凭几据杖	-12.850000
凭单	-12.850000
凭据	-12.850000
凭着	-12.014311
凭空	-12.850000
凭空捏造	-12.850000
凭藉	-12.850000
凭证	-12.405271
凭轼旁观	-12.850000
凭轼结辙	-12.850000
凯	-10.597112
凯利	-12.604506
凯撒	-12.603095
凯旋	-12.850000
凯旋归来	-12.602825
凯旋门	-12.850000
凰	-14.685324
凱	-14.686122
凳	-11.857052
凳子	-12.850000
凵	-14.685921
凶	-10.456576
凶信	-12.850000
凶喘肤汗	-12.850000
凶多吉少	-13.186169
凶恶	-12.236704
凶手	-11.759527
凶暴	-12.850000
凶案	-12.850000
凶横	-13.187872
凶煞	-12.850000
凶狠	-12.853168
凶猛	-11.857476
凶相	-12.850000
凶相毕露	-12.402824
凶神恶煞	-12.850000
凶险	-11.583100
凸	-11.365871
凸凹	-12.850000
凸出	-12.608750
凸显	-12.853254
凸版印刷	-12.850000
凹	-11.245779
凹凸	-12.850000
凹度	-12.850000
凹洞	-12.850000
凹洼	-12.850000
凹版	-12.850000
凹版印刷	-12.850000
凹透镜	-12.850000
凹镜	-12.850000
凹陷	-12.853012
凹面	-12.850000
凹面镜	-12.850000
出	-6.462690
出一头地	-12.850000
出丧	-12.850000
出乎	-12.249516
出乎意料	-12.236188
出乖弄丑	-12.850000
出乖露丑	-12.850000
出乘	-12.850000
出于	-10.393341
出云入泥	-12.850000
出亡	-12.850000
出产	-12.477473
出人头地	-12.850000
出人意料	-11.582959
出价	-12.850000
出任	-10.532355
出份子	-12.850000
出何典记	-12.850000
出何经典	-12.850000
出入	-10.112546
出入境	-12.850000
出入将相	-12.850000
出入无间	-12.850000
出入证	-12.850000
出兵	-11.248780
出其不备	-12.850000
出其不意	-12.602851
出其不虞	-12.850000
出具	-11.865067
出内之吝	-12.850000
出击	-11.102911
出力	-12.040610
出动	-11.503580
出勤率	-12.850000
出卖	-11.054160
出厂	-12.850000
出厂价格	-12.850000
出去	-8.859513
出发	-9.797634
出发点	-11.670131
出口	-9.096634
出口成章	-13.186187
出口量	-12.611910
出台	-11.026125
出名	-10.826535
出品	-12.447257
出售	-10.188136
出国	-11.321617
出圃	-12.850000
出圈	-12.850000
出圈儿	-12.850000
出土	-10.487367
出场	-11.899067
出塞	-12.850000
出境	-11.169619
出境游	-12.236627
出处	-12.850000
出处殊涂	-12.850000
出处殊途	-12.850000
出处语默	-12.850000
出处进退	-12.850000
出头	-12.850000
出头之日	-12.850000
出头露面	-12.850000
出奇	-12.001265
出奇不穷	-12.850000
出奇划策	-12.850000
出奇制胜	-12.602862
出奇取胜	-12.850000
出奇无穷	-12.850000
出奇致胜	-12.850000
出奔	-12.850000
出嫁	-12.109024
出家	-12.850000
出家人	-12.611322
出将入相	-12.850000
出尘不染	-12.850000
出展	-12.850000
出岔子	-12.850000
出差	-12.850000
出差错	-12.850000
出师	-12.181364
出师不利	-12.850000
出师有名	-12.850000
出席	-9.840513
出征	-10.946671
出手	-10.628471
出手得卢	-12.850000
出掌	-12.850000
出摊儿	-12.850000
出敌不意	-12.850000
出新	-11.800046
出有入无	-12.850000
出来	-7.595985
出栏	-12.413167
出栏率	-12.850000
出榜	-12.850000
出死力	-13.186311
出死断亡	-12.850000
出汗	-12.457477
出没	-12.850000
出没不常	-12.850000
出没无常	-12.850000
出洋相	-12.850000
出活儿	-12.850000
出浅入深	-12.850000
出海	-12.017728
出港	-12.850000
出游	-11.790056
出溜	-12.850000
出炉	-12.419456
出版	-9.344478
出版物	-11.668584
出版社	-10.724166
出版署	-12.403237
出狱	-12.242014
出现	-7.778121
出生	-10.282431
出生入死	-13.186166
出生率	-12.850000
出示	-12.102351
出神入化	-13.186148
出租	-12.628884
出租汽车	-12.850000
出租车	-11.666455
出笼	-12.850000
出缺	-12.308412
出自	-11.438814
出色	-11.015684
出落	-12.850000
出血	-11.331224
出行	-11.952071
出言	-11.727377
出言不逊	-12.850000
出言吐气	-12.850000
出言吐词	-12.850000
出言吐语	-12.850000
出言有章	-12.850000
出访	-12.248840
出词吐气	-12.850000
出语成章	-12.850000
出谋划策	-12.850000
出资	-11.590126
出路	-11.042293
出身	-10.158910
出车	-12.850000
出远门	-12.850000
出错	-12.283071
出门	-10.994979
出门合辙	-12.850000
出门应辙	-12.850000
出面	-10.705190
出鞘	-12.610714
出题	-12.401245
出风头	-12.853021
击	-9.239853
击中	-12.167260
击中要害	-12.850000
击伤	-12.860308
击其不意	-12.850000
击发	-12.850000
击垮	-13.187205
击打	-12.420057
击排冒没	-12.850000
击搏挽裂	-12.850000
击楫中流	-12.850000
击毂摩肩	-12.850000
击毙	-11.968493
击沉	-12.855535
击溃	-11.968476
击球	-12.607892
击电奔星	-12.850000
击石弹丝	-12.850000
击穿	-12.861019
击筑悲歌	-12.850000
击节	-12.850000
击节叹赏	-12.850000
击节称赏	-12.850000
击落	-12.861365
击败	-10.952296
击退	-12.607919
击钟鼎食	-12.850000
凼	-14.686273
函	-11.243937
函大	-12.850000
函授大学	-12.850000
函授学校	-12.850000
函授班	-12.850000
函数	-9.868274
函盖乾坤	-12.850000
函盖充周	-12.850000
函矢相攻	-12.850000
凿	-10.538633
凿凿可据	-12.850000
凿凿有据	-12.850000
凿坏以遁	-12.850000
凿坏而遁	-12.850000
凿空之论	-12.850000
凿空取办	-12.850000
凿空投隙	-12.850000
凿饮耕食	-12.850000
凿骨捣髓	-12.850000
凿龟数策	-12.850000
刀	-8.448757
刀伤	-12.869407
刀光血影	-12.850000
刀刀见血	-12.850000
刀削	-12.850000
刀削面	-12.850000
刀剑	-12.248191
刀叉	-12.850000
刀头	-12.850000
刀头剑首	-12.850000
刀头燕尾	-12.850000
刀头舔蜜	-12.850000
刀子	-11.996624
刀尖	-12.608416
刀工	-12.268995
刀把	-12.850000
刀把儿	-12.850000
刀把子	-12.850000
刀枪	-12.612020
刀枪不入	-12.850000
刀架	-12.850000
刀法	-11.597043
刀片	-12.617816
刀美兰	-12.602792
刀耕火种	-12.850000
刀背	-12.850000
刀过竹解	-12.850000
刀锋	-12.855143
刀鞘	-12.850000
刁	-12.093331
刁天决地	-12.850000
刁斗森严	-12.850000
刁横	-12.850000
刁钻	-12.850000
刁钻促搯	-12.850000
刁钻促狭	-12.850000
刁钻刻薄	-12.850000
刁钻古怪	-12.850000
刁难	-12.850000
刂	-12.852852
刃	-10.723896
刃迎缕解	-12.850000
分	-7.198801
分三别两	-12.850000
分丝析缕	-12.850000
分为	-8.956077
分享	-10.074949
分付	-11.862440
分会	-11.610108
分体	-12.850000
分值	-12.850000
分光	-12.850000
分公司	-11.392429
分兵	-12.850000
分内	-12.850000
分内之事	-12.850000
分册	-12.850000
分分	-12.850000
分列	-12.422760
分列式	-12.850000
分利	-12.850000
分别	-8.381149
分别部居	-12.850000
分别门户	-12.850000
分割	-11.437203
分力	-12.850000
分劳赴功	-12.850000
分化	-10.878872
分化瓦解	-12.850000
分区	-12.384151
分厂	-12.850000
分厘	-12.850000
分厘毫丝	-12.850000
分叉	-12.609359
分发	-12.850000
分号	-12.850000
分合	-12.850000
分团	-12.153810
分地	-12.850000
分外	-12.850000
分外妖娆	-12.850000
分头	-12.850000
分娩	-12.602926
分子	-9.081304
分子力	-12.850000
分子式	-12.850000
分子晶体	-12.850000
分子晶體	-12.850000
分子筛	-12.850000
分子結構	-12.850000
分子结构	-12.850000
分子量	-12.850000
分子钟	-12.850000
分守要津	-12.850000
分宜	-12.850000
分宵达曙	-12.850000
分家	-12.850000
分家析产	-12.850000
分寸	-12.850000
分寸之末	-12.850000
分封	-12.434293
分局	-12.114012
分居	-12.850000
分居异爨	-12.850000
分岐	-12.850000
分岔	-12.850000
分崩离析	-12.850000
分工	-11.268687
分工合作	-12.850000
分布	-8.574766
分床同梦	-12.850000
分店	-12.850000
分庭伉礼	-12.850000
分庭抗礼	-12.850000
分开	-10.846034
分式	-12.850000
分当	-12.850000
分形共气	-12.850000
分形同气	-12.850000
分形连气	-12.850000
分得	-12.850000
分心	-12.850000
分心挂腹	-12.850000
分忧	-12.850000
分情破爱	-12.850000
分成	-10.245376
分我杯羹	-12.850000
分户	-12.850000
分房	-12.850000
分房减口	-12.850000
分手	-12.083685
分批	-12.850000
分担	-12.865365
分拣	-12.850000
分拨	-12.850000
分摊	-12.850000
分支	-10.709215
分散	-10.544339
分散主义	-12.850000
分散染料	-12.850000
分数	-11.212365
分数线	-11.666707
分文	-12.850000
分文不值	-12.850000
分文不取	-12.850000
分文不名	-12.850000
分文不直	-12.850000
分文未取	-12.850000
分斤拨两	-12.850000
分斤掰两	-12.850000
分时	-12.850000
分明	-10.624811
分星劈两	-12.850000
分星拨两	-12.850000
分星擘两	-12.850000
分晓	-12.409279
分朋引类	-12.850000
分期	-12.850000
分机	-12.850000
分权	-12.850000
分杈	-12.850000
分条析理	-12.850000
分析	-8.601427
分析师	-11.976791
分析语	-12.850000
分枝	-12.084193
分校	-11.675155
分档	-12.850000
分歧	-11.163019
分段	-12.850000
分母	-12.850000
分毫	-12.850000
分毫不值	-12.850000
分毫不取	-12.850000
分毫不差	-12.402824
分毫不爽	-12.850000
分毫无爽	-12.850000
分毫析厘	-12.850000
分水	-12.850000
分水岭	-11.434603
分水线	-12.850000
分治	-11.990155
分泌	-10.663237
分泌物	-12.604486
分洪	-12.850000
分派	-12.850000
分流	-10.769826
分润	-12.850000
分清	-12.850000
分烟析产	-12.850000
分烟析生	-12.850000
分爨	-12.850000
分片	-12.850000
分理	-12.850000
分理处	-12.850000
分甘共苦	-12.850000
分甘同苦	-12.850000
分甘绝少	-12.850000
分界	-12.850000
分界点	-12.852860
分界线	-12.850000
分社	-12.241708
分神	-12.850000
分离	-10.152227
分离器	-12.850000
分科	-12.850000
分秒	-12.850000
分秒必争	-12.850000
分税制	-12.850000
分立	-12.850000
分章析句	-12.850000
分管	-12.488235
分米	-12.850000
分类	-9.828032
分类学	-12.864617
分类法	-12.866730
分红	-12.850000
分级	-12.272161
分组	-12.850000
分给	-12.850000
分群	-12.850000
分而治之	-12.850000
分肥	-12.850000
分色	-12.850000
分节	-12.850000
分花拂柳	-12.850000
分花约柳	-12.850000
分茅列土	-12.850000
分茅胙土	-12.850000
分茅裂土	-12.850000
分茅赐土	-12.850000
分茅锡土	-12.850000
分蘖	-12.850000
分行	-12.177096
分裂	-10.249216
分装	-12.850000
分角器	-12.850000
分解	-10.763796
分解者	-12.850000
分设	-12.850000
分词	-12.850000
分说	-12.850000
分贝	-12.850000
分账	-12.850000
分贫振穷	-12.850000
分赃	-12.403115
分赴	-12.850000
分路	-12.850000
分路扬镳	-12.850000
分身	-12.850000
分身减口	-12.850000
分身无术	-12.850000
分身术	-12.850000
分辨	-11.139503
分辨率	-11.666633
分辩	-12.862007
分进合击	-12.850000
分送	-12.850000
分道	-12.850000
分道扬镳	-13.186172
分部	-12.850000
分配	-9.338639
分配律	-12.850000
分野	-12.850000
分量	-11.688417
分金掰两	-12.850000
分针	-12.850000
分钗劈凤	-12.850000
分钗断带	-12.850000
分钗破镜	-12.850000
分钟	-9.125151
分销店	-12.850000
分镜头	-12.850000
分门别户	-12.850000
分门别类	-12.850000
分队	-11.979535
分阴	-12.850000
分际	-12.850000
分院	-11.248829
分隔	-12.850000
分鞋破镜	-12.850000
分频	-12.850000
分风劈流	-12.850000
分飞	-12.850000
分餐	-12.850000
分餐制	-12.850000
分馏	-12.850000
分香卖履	-12.850000
切	-9.431228
切不	-12.850000
切中	-12.850000
切中事理	-12.850000
切中时弊	-12.850000
切中时病	-12.850000
切中要害	-12.850000
切入	-12.869604
切入点	-12.853454
切分	-12.850000
切切	-12.850000
切切在心	-12.850000
切切实实	-12.850000
切切此令	-12.850000
切切此布	-12.850000
切切牢记	-12.850000
切切私语	-12.850000
切切请求	-12.850000
切削	-12.603548
切割	-11.833303
切力效应	-12.850000
切勿	-13.187082
切勿倒置	-12.850000
切勿受潮	-12.850000
切勿吸烟	-12.850000
切勿靠近	-12.850000
切勿颠倒	-12.850000
切变	-12.850000
切口	-12.850000
切合	-12.239731
切合实际	-12.850000
切嘱	-12.850000
切块	-12.238755
切实	-10.759647
切实可行	-12.852995
切尔西	-12.402830
切屑	-12.850000
切己	-12.850000
切当	-12.850000
切忌	-12.850000
切断	-11.507531
切望	-12.850000
切末	-12.850000
切树倒根	-12.850000
切激	-12.850000
切点	-12.850000
切片	-12.608422
切片机	-12.850000
切理会心	-12.850000
切理厌心	-12.850000
切理餍心	-12.850000
切瑳琢磨	-12.850000
切盼	-12.850000
切磋	-12.602943
切磋琢磨	-12.850000
切糕	-12.850000
切结	-12.850000
切肤之痛	-12.850000
切脉	-12.850000
切花	-12.850000
切莫	-12.850000
切要	-12.850000
切记	-12.858522
切诊	-12.850000
切谏	-12.850000
切责	-12.850000
切贴	-12.850000
切身	-12.850000
切身体会	-12.850000
切身体验	-12.850000
切身利害	-12.850000
切身利益	-13.186172
切身大事	-12.850000
切近	-12.850000
切近的当	-12.850000
切迫	-12.850000
切除	-11.736897
切面	-12.850000
切音	-12.850000
切题	-12.850000
切骨	-12.850000
切骨之仇	-12.850000
切骨之寒	-12.850000
切骨之恨	-12.850000
切齿	-12.854126
切齿咒骂	-12.850000
切齿拊心	-12.850000
切齿痛心	-12.850000
切齿痛恨	-12.850000
切齿腐心	-12.850000
刈	-13.186190
刊	-10.446135
刊刻	-13.187510
刊发	-12.850000
刊头	-12.850000
刊心刻骨	-12.850000
刊物	-11.041206
刊用	-12.850000
刊登	-11.857531
刊行	-12.850000
刊载	-12.850000
刍	-12.602849
刍荛之见	-12.850000
刎	-13.186166
刎颈	-12.850000
刎颈之交	-12.850000
刎颈交	-12.850000
刑	-9.892368
刑事	-10.833982
刑事判决	-12.850000
刑事责任	-12.850000
刑于之化	-12.850000
刑场	-12.850000
刑措不用	-12.850000
刑期	-12.850000
刑期无刑	-12.850000
刑法	-11.508183
刑种	-12.850000
刑罚	-11.583187
刑警	-13.187208
刑部	-10.270038
划	-9.627640
划一	-12.850000
划一不二	-12.850000
划不来	-12.850000
划价	-12.850000
划出	-12.636581
划分	-9.574450
划划	-12.850000
划地为牢	-12.850000
划子	-12.850000
划定	-12.610839
划归	-12.405663
划得来	-12.850000
划拉	-12.850000
划拨	-13.188210
划拳	-12.850000
划时代	-12.857218
划桨	-13.186443
划水	-12.850000
划清	-12.850000
划界	-12.850000
划破	-12.235977
划算	-12.850000
划粥割齑	-12.850000
划线	-12.850000
划船	-12.858054
划艇	-12.850000
划行	-12.850000
划过	-12.850000
刓方为圆	-12.850000
列	-9.207056
列为	-9.570253
列举	-11.594700
列传	-12.516671
列位	-12.614037
列入	-10.434084
列出	-12.271260
列功覆过	-12.850000
列土分茅	-12.850000
列土封疆	-12.850000
列宁	-11.435268
列宁主义	-12.850000
列宁格勒	-12.852839
列席	-11.041079
列强	-11.670653
列表	-11.980844
列车	-10.660094
列车员	-12.850000
列车长	-12.850000
列风淫雨	-12.850000
列鼎而食	-12.850000
刘	-8.720028
刘一舟	-13.186190
刘七爹	-12.602839
刘伯承	-12.852852
刘体纯	-13.186184
刘光世	-12.852832
刘冬冬	-12.236179
刘华清	-12.852830
刘卫东	-12.852830
刘合炳	-12.093313
刘和珍	-12.602834
刘国正	-12.236205
刘国能	-12.602882
刘备	-10.664966
刘大响	-12.093321
刘姥姥	-12.402968
刘子华	-11.434614
刘子厚	-12.402836
刘宗敏	-10.627667
刘家	-12.445344
刘少奇	-11.138419
刘应明	-12.853215
刘延庆	-13.186732
刘建超	-12.402855
刘志军	-12.853155
刘振伟	-12.236144
刘明祖	-12.852843
刘正风	-12.236184
刘毅答诏	-12.850000
刘泽清	-12.852869
刘海儿	-12.850000
刘湛恩	-12.852760
刘玉翠	-13.186093
刘石泉	-13.186154
刘禅	-13.188203
刘积斌	-12.852852
刘精松	-12.236160
刘絮云	-11.857187
刘翔	-11.968481
刘胡兰	-13.186160
刘芳亮	-12.602865
刘裕	-12.854138
刘贵妃	-12.603494
刘道玉	-12.402858
刘邦	-11.089343
刘郎前度	-12.850000
刘郎浦	-11.434601
刘醒龙	-12.093329
刘雪荣	-12.602873
则	-7.597540
则甚	-12.850000
刚	-8.736659
刚中柔外	-12.850000
刚体	-12.617908
刚刚	-9.593143
刚劲	-12.850000
刚好	-11.515585
刚度	-12.850000
刚强	-12.850000
刚性	-12.432103
刚才	-9.562366
刚果	-12.096889
刚柔相济	-12.850000
刚正	-12.850000
刚正不阿	-12.850000
刚毅	-11.434890
刚直不阿	-12.850000
刚石	-12.850000
刚硬	-12.861357
刚肠嫉恶	-12.850000
创	-9.545080
创下	-12.648529
创世纪	-12.850000
创业	-10.539758
创业史	-12.850000
创业园	-12.236572
创业垂统	-12.850000
创业维艰	-12.850000
创举	-12.850000
创优	-12.850000
创伤	-11.758907
创作	-9.261930
创作方法	-12.850000
创出	-12.850000
创刊	-12.094026
创刊号	-12.850000
创刊词	-12.850000
创利	-12.850000
创制	-11.585000
创剧痛深	-12.850000
创办	-10.336659
创口	-12.850000
创始	-12.398860
创始人	-10.953200
创巨痛仍	-12.850000
创巨痛深	-12.850000
创建	-10.407602
创建者	-11.248057
创意	-11.860308
创意造言	-12.850000
创收	-12.850000
创新	-9.632603
创汇	-12.403558
创演	-12.850000
创牌子	-12.850000
创痕	-12.850000
创痛	-12.850000
创税	-12.850000
创立	-10.832470
创维	-12.404450
创编	-12.850000
创见	-12.850000
创议	-12.850000
创设	-12.412482
创造	-9.252921
创造力	-12.410872
创造性	-11.512757
创钜痛仍	-12.850000
创钜痛深	-12.850000
创面	-12.850000
初	-8.286157
初七	-12.850000
初中	-10.201168
初中生	-12.850000
初五	-12.850000
初会	-12.850000
初八	-12.416350
初六	-12.850000
初兴靖	-12.852856
初具规模	-12.850000
初创	-12.850000
初十	-12.850000
初叶	-12.850000
初四	-12.850000
初始	-11.860519
初审	-12.858691
初度	-12.850000
初战	-12.618579
初时	-11.399577
初春	-12.872018
初晴	-12.850000
初期	-9.927940
初次	-12.109699
初步	-9.868320
初涉	-13.187809
初等教育	-12.402916
初级	-10.486496
初级中学	-12.850000
初级阶段	-11.757773
初绽	-12.850000
初衷	-12.853601
初见	-12.472613
初评	-12.850000
初识	-12.850000
初露	-12.850000
初露头角	-12.850000
初露锋芒	-12.850000
刞	-14.686322
删	-11.967979
删削	-12.850000
删华就素	-12.850000
删繁就简	-12.850000
删节	-12.850000
删节号	-12.850000
删除	-11.857467
判	-10.594539
判决	-10.691277
判分	-12.850000
判刑	-12.603233
判别	-12.404726
判别式	-12.850000
判处	-11.507838
判官	-12.605126
判定	-11.858578
判据	-12.850000
判断	-9.648529
判断力	-12.609591
判然不同	-12.850000
判罚	-12.850000
判若两人	-12.850000
判若云泥	-12.850000
判若天渊	-12.850000
判若水火	-12.850000
判若鸿沟	-12.850000
判读	-12.850000
刨	-11.434610
刨冰	-12.850000
刨刀	-12.850000
刨削	-12.850000
刨子	-12.850000
刨工	-12.850000
刨平	-12.850000
刨床	-12.850000
刨木板	-12.850000
刨树搜根	-12.850000
刨根儿	-12.850000
刨根究底	-12.850000
刨根问底	-12.850000
刨花	-12.850000
刨花板	-12.850000
刨除	-12.850000
刨食	-12.850000
利	-8.485200
利不亏义	-12.850000
利于	-11.526164
利亚	-11.225239
利令志惛	-12.850000
利令智昏	-12.850000
利口捷给	-12.850000
利器	-11.974279
利害	-10.188517
利害得失	-12.850000
利害相关	-12.850000
利尿	-12.850000
利川市	-11.857208
利得	-12.850000
利息	-10.458090
利息率	-12.097586
利欲熏心	-12.850000
利比亚	-11.968311
利比里亚	-13.186178
利润	-9.603425
利润率	-10.996141
利灾乐祸	-12.850000
利爪	-12.850000
利物浦	-12.093305
利率	-10.871877
利用	-8.485013
利用率	-12.850000
利益	-8.958689
利禄	-12.609018
利税	-11.247684
利维	-12.860549
利落	-12.850000
利齿	-12.850000
利齿能牙	-12.850000
别	-8.164822
别业	-12.850000
别个	-12.850000
别人	-9.109831
别价	-12.850000
别传	-12.850000
别体	-12.850000
别作一眼	-12.850000
别作良图	-12.850000
别具一格	-12.850000
别具匠心	-12.850000
别具只眼	-12.850000
别具心肠	-12.850000
别具慧眼	-12.850000
别具手眼	-12.850000
别具肺肠	-12.850000
别具风味	-13.186202
别出心裁	-12.852873
别出手眼	-12.850000
别出新意	-12.850000
别出新裁	-12.850000
别出机杼	-12.850000
别创一格	-12.850000
别动队	-12.850000
别史	-12.850000
别号	-12.850000
别名	-11.602267
别嘴	-12.850000
别国	-12.850000
别墅	-11.757221
别处	-11.201838
别字	-12.850000
别家	-12.850000
别居异财	-12.850000
别开一格	-12.850000
别开生面	-12.850000
别开蹊径	-12.850000
别忙	-12.850000
别情	-12.850000
别扭	-12.237946
别抱琵琶	-12.850000
别提	-12.850000
别无二致	-12.850000
别无他物	-12.850000
别无出路	-12.850000
别无分店	-12.850000
别无长物	-12.850000
别是	-12.850000
别有人间	-12.850000
别有天地	-12.850000
别有心肝	-12.850000
别有心肠	-12.850000
别有洞天	-12.850000
别有滋味	-12.850000
别有用心	-12.602859
别有肺肠	-12.850000
别有风味	-13.186208
别有风趣	-12.850000
别本	-12.850000
别来无恙	-12.850000
别树一帜	-12.850000
别树一旗	-12.850000
别样	-12.850000
别生枝节	-12.850000
别的	-9.875266
别离	-12.850000
别称	-12.638604
别管	-12.850000
别籍异居	-12.850000
别籍异财	-12.850000
别类分门	-12.850000
别绪	-12.850000
别置一喙	-12.850000
别致	-12.850000
别论	-12.850000
别说	-11.292697
别财异居	-12.850000
别趣	-12.850000
别针	-12.850000
别集	-12.850000
别风淮雨	-12.850000
别饶风致	-12.850000
别馆	-12.850000
别鹤孤鸾	-12.850000
别鹤离鸾	-12.850000
刬	-14.686322
刬恶锄奸	-12.850000
刬旧谋新	-12.850000
刬草除根	-12.850000
刮	-10.794458
刮削	-12.850000
刮地皮	-12.850000
刮垢磨光	-12.850000
刮垢磨痕	-12.850000
刮水器	-12.236172
刮目相待	-12.850000
刮目相看	-12.850000
刮目相见	-12.850000
刮肠洗胃	-12.850000
刮野扫地	-12.850000
刮风	-12.850000
刮骨去毒	-12.850000
刮骨抽筋	-12.850000
到	-5.807750
到了	-12.850000
到任	-12.850000
到会	-12.850000
到位	-11.442248
到场	-12.850000
到处	-9.853308
到头	-12.850000
到头来	-11.861193
到家	-12.850000
到底	-9.506781
到时候	-11.955123
到期	-12.850000
到来	-10.249897
到此为止	-12.850000
到站	-12.850000
到达	-9.814273
刳	-14.686172
刳精呕血	-12.850000
刳脂剔膏	-12.850000
制	-8.183308
制作	-9.633624
制冷	-12.866362
制冷机	-12.853159
制剂	-11.860213
制动	-12.254689
制动阀	-12.852886
制取	-12.419062
制品	-10.715212
制备	-11.859773
制定	-8.495234
制宪	-13.188390
制导	-11.247204
制度	-8.016313
制度化	-11.679423
制式	-12.020300
制成	-9.933493
制成品	-12.404540
制服	-11.584441
制服呢	-12.850000
制止	-10.759939
制热	-12.850000
制片	-12.100368
制片厂	-12.403047
制种	-12.850000
制空权	-13.186196
制糖	-12.241515
制糖厂	-12.850000
制约	-10.511729
制胜	-12.867226
制药	-10.726947
制药厂	-12.850000
制裁	-11.306303
制订	-10.870866
制造	-9.135749
制造业	-11.249929
制造厂	-12.607862
制造商	-12.226612
制革厂	-12.850000
制鞋	-12.857664
刷	-10.147671
刷刷	-12.853501
刷子	-12.850000
刷拉	-12.850000
刷新	-12.850000
刷毛	-12.850000
刷洗	-12.850000
刷白	-12.850000
券	-11.244431
券门	-11.758792
刹	-11.505218
刹不住	-12.850000
刹住	-12.850000
刹刹	-12.850000
刹把	-12.850000
刹时	-12.850000
刹车	-12.850000
刹那	-12.850000
刹那间	-11.582927
刺	-9.004382
刺上化下	-12.850000
刺伤	-11.971957
刺儿	-12.850000
刺儿头	-12.850000
刺刀	-11.437136
刺刺不休	-12.850000
刺参	-12.850000
刺史	-11.436996
刺啦	-12.850000
刺头	-12.850000
刺字	-12.850000
刺客	-12.096273
刺心切骨	-12.850000
刺心刻骨	-12.850000
刺心裂肝	-12.850000
刺探	-12.850000
刺杀	-12.615500
刺柏	-12.850000
刺桐	-12.850000
刺梅	-12.850000
刺槐	-12.850000
刺溜	-12.850000
刺激	-9.973096
刺激性	-12.613279
刺激素	-12.850000
刺猬	-12.850000
刺痒	-12.850000
刺痛	-12.850000
刺的一声	-12.850000
刺目	-12.850000
刺眼	-12.850000
刺破	-12.850000
刺绣	-12.094926
刺网	-12.850000
刺耳	-12.607081
刺股悬梁	-12.850000
刺股读书	-12.850000
刺虎持鹬	-12.850000
刺配	-12.850000
刺针	-12.850000
刺骨	-12.859840
刺鼻	-12.850000
刻	-9.495605
刻不容松	-12.850000
刻不容缓	-12.850000
刻不待时	-12.850000
刻划	-12.850000
刻制	-12.850000
刻度	-12.850000
刻意	-12.862389
刻有	-11.968988
刻木为吏	-12.850000
刻木为鹄	-12.850000
刻毒	-12.850000
刻画	-11.970538
刻章琢句	-12.850000
刻翠裁红	-12.850000
刻肌刻骨	-12.850000
刻花	-12.850000
刻苦	-12.238335
刻薄	-12.850000
刻薄寡思	-12.850000
刻雾裁风	-12.850000
刻骨	-12.850000
刻骨仇恨	-12.850000
刻骨崩心	-12.850000
刻骨相思	-12.850000
刻骨铭心	-12.850000
刻骨镂心	-12.850000
刽	-14.686373
刽子手	-12.850000
刿	-14.686172
剀切	-12.850000
剀切中理	-12.850000
剀切教导	-12.850000
剀切详明	-12.850000
剁	-10.831757
剂	-9.527781
剂量	-11.759565
剃	-11.506021
剃光头	-12.850000
剃发	-12.850000
剃头	-12.850000
剃头刀	-12.850000
剃度	-12.850000
剅	-10.458264
剉	-9.214853
削	-10.539130
削价	-12.850000
削减	-11.583088
削削	-12.850000
削发	-12.850000
削发披缁	-12.850000
削地	-12.850000
削壁	-12.850000
削尖脑袋	-12.850000
削平	-12.850000
削弱	-11.191175
削木为吏	-12.850000
削株掘根	-12.850000
削球	-12.850000
削瘦	-12.850000
削皮	-12.850000
削职	-12.850000
削职为民	-12.850000
削肩	-12.850000
削草除根	-12.850000
削足适履	-12.850000
削趾适屦	-12.850000
削铁如泥	-12.850000
削铁无声	-12.850000
削铅笔	-12.850000
削除	-12.850000
削面	-12.850000
剌	-11.088430
前	-6.784609
前一天	-11.326315
前不久	-11.767510
前些年	-12.603581
前人	-11.486744
前仆后继	-12.852843
前仆后踣	-12.850000
前仇	-12.850000
前仰后合	-12.850000
前任	-12.850000
前俯后仰	-12.850000
前列	-11.096000
前列腺	-13.186132
前列腺素	-13.186316
前前后后	-12.602889
前功尽废	-12.850000
前功尽弃	-12.850000
前功尽灭	-12.850000
前去	-10.316075
前古未有	-12.850000
前台	-12.850000
前合后仰	-12.850000
前后	-10.157049
前后脚儿	-12.850000
前哨	-12.616660
前场	-12.453756
前夕	-11.759183
前夫	-12.850000
前头	-12.850000
前奏曲	-12.850000
前妻	-12.850000
前导	-12.237763
前度刘郎	-12.850000
前庭	-12.613354
前往	-10.251644
前徒倒戈	-12.850000
前思后想	-12.850000
前所未有	-11.757201
前排	-12.850000
前提	-9.807682
前方	-11.004156
前景	-10.544541
前朝	-12.850000
前期	-10.687812
前来	-10.481995
前殿	-11.879192
前沿	-11.673975
前滚翻	-12.850000
前爪	-12.850000
前程	-11.586539
前程万里	-12.850000
前端	-12.439715
前线	-11.212236
前者	-10.474034
前臂	-12.850000
前行	-12.053519
前街后巷	-12.850000
前言往行	-12.850000
前跋后疐	-12.850000
前身	-11.730494
前车	-12.850000
前车之鉴	-12.850000
前车可鉴	-12.850000
前辈	-10.601072
前辙可鉴	-12.850000
前进	-10.050257
前途	-10.926628
前锋	-11.586135
前门	-11.797267
前门大街	-12.602940
前面	-9.600187
剐	-12.402827
剑	-8.285939
剑头一吷	-12.850000
剑术	-12.860689
剑桥	-12.246355
剑桥大学	-12.093647
剑法	-10.531973
剑舞	-12.850000
剑锋	-12.604919
剑鞘	-12.854502
剑首一吷	-12.850000
剔	-11.968234
剔抽禿刷	-12.850000
剔抽秃揣	-12.850000
剔红	-12.850000
剔蝎撩蜂	-12.850000
剕	-14.686222
剖	-11.433914
剖心泣血	-12.850000
剖析	-11.968328
剖肝泣血	-12.850000
剖腹藏珠	-12.850000
剖蚌得珠	-12.850000
剖蚌求珠	-12.850000
剖解	-12.850000
剖面	-12.604149
剗恶锄奸	-12.850000
剗旧谋新	-12.850000
剗草除根	-12.850000
剜	-12.093288
剡	-13.686192
剤	-14.686172
剥	-11.040243
剥削	-10.658856
剥削者	-12.850000
剥削阶级	-12.403306
剥剥	-12.850000
剥取	-12.850000
剥壳	-12.850000
剥夺	-11.305546
剥床及肤	-12.850000
剥极则复	-12.850000
剥极将复	-12.850000
剥极必复	-12.850000
剥皮	-12.850000
剥皮抽筋	-12.850000
剥离	-12.236835
剥肤之痛	-12.850000
剥肤及髓	-12.850000
剥肤椎髓	-12.850000
剥脱	-12.850000
剥花生	-12.850000
剥苹果	-12.850000
剥茧抽丝	-12.850000
剥落	-13.188215
剥蚀	-12.093344
剥除	-12.850000
剧	-9.904463
剧中人	-12.850000
剧作	-11.533502
剧作家	-12.095652
剧团	-11.641871
剧场	-11.507557
剧增	-12.854735
剧情	-12.857816
剧曲	-12.850000
剧本	-11.510354
剧毒	-11.858104
剧烈	-11.434813
剧痛	-11.757831
剧目	-12.094694
剧社	-11.666843
剧种	-12.850000
剧组	-12.404291
剧院	-11.065039
剩	-10.453258
剩下	-9.786374
剩余	-11.367545
剩余价值	-10.336073
剩余价值率	-11.667043
剩余劳动	-12.236636
剩馥残膏	-12.850000
剪	-10.268787
剪刀	-11.583791
剪发	-12.850000
剪发披缁	-12.850000
剪发杜门	-12.850000
剪发被褐	-12.850000
剪恶除奸	-12.850000
剪枝	-12.850000
剪纸	-12.854476
剪裁	-13.187052
副	-7.575272
副产品	-12.850000
副产物	-12.850000
副作用	-12.129132
副刊	-12.850000
副厅级	-13.186244
副品	-12.850000
副官	-11.684387
副将	-12.002109
副总	-12.540595
副手	-12.850000
副教授	-11.977515
副本	-12.850000
副标题	-12.850000
副歌	-12.850000
副油箱	-12.850000
副研究员	-12.850000
副科	-12.850000
副署	-12.850000
副职	-12.161479
副肾	-12.850000
副行长	-12.850000
副词	-12.850000
副食	-12.850000
副食品	-12.850000
副高	-12.850000
剰	-11.857195
割	-10.150489
割切	-12.850000
割地	-12.850000
割地求和	-12.850000
割地称臣	-12.850000
割尾巴	-12.850000
割席分坐	-12.850000
割据	-11.507359
割据一方	-12.850000
割断	-12.605206
割肚牵肠	-12.850000
割股疗亲	-12.850000
割臂之盟	-12.850000
割臂盟公	-12.850000
割裂	-12.853636
割骨疗亲	-12.850000
剳	-14.686172
剷	-14.686222
剸繁决剧	-12.850000
剸繁治剧	-12.850000
剼	-13.186172
剽	-14.673023
剿	-11.366829
剿匪	-12.852908
剿杀	-12.850000
剿灭	-13.186690
剿袭	-12.850000
剿说	-12.850000
剿除	-12.850000
劅	-13.686132
劈	-10.597138
劈刀	-12.850000
劈刺	-12.850000
劈劈啪啪	-12.850000
劈叉	-12.850000
劈啪	-12.850000
劈天盖地	-12.850000
劈头	-12.850000
劈头劈脑	-12.850000
劈头盖脑	-12.850000
劈头盖脸	-12.850000
劈山	-12.850000
劈成	-12.850000
劈手	-12.850000
劈木头	-12.850000
劈杀	-12.850000
劈柴	-12.850000
劈波斩浪	-12.850000
劈胸	-12.850000
劈脸	-12.604565
劈荆斩棘	-12.850000
劈裂	-12.850000
劈里啪啦	-12.850000
劈面	-12.850000
劈风斩浪	-12.850000
劍	-12.852830
劓	-14.686222
劘	-14.686222
劚	-14.686172
劚玉如泥	-12.850000
力	-8.050628
力不从心	-12.850000
力不胜任	-12.850000
力不能及	-12.850000
力不能支	-12.850000
力不自胜	-12.850000
力争	-11.007583
力争上游	-12.850000
力促	-12.855550
力可拔山	-12.850000
力图	-11.512284
力场	-12.850000
力士	-12.824057
力大无比	-12.850000
力学	-10.575927
力学不倦	-12.850000
力学笃行	-12.850000
力小任重	-12.850000
力尽	-12.850000
力尽筋疲	-12.850000
力帆	-12.405052
力度	-10.385382
力所不及	-12.850000
力所能及	-13.186172
力拼	-12.850000
力排众议	-12.850000
力有未逮	-12.850000
力气	-10.707707
力求	-11.050455
力点	-12.850000
力矩	-12.603189
力能扛鼎	-12.850000
力臂	-12.850000
力行	-12.850000
力透纸背	-12.850000
力避	-12.850000
力量	-8.856504
劝	-9.704260
劝业场	-12.850000
劝化	-12.850000
劝告	-12.604399
劝和	-12.850000
劝善惩恶	-12.850000
劝善戒恶	-12.850000
劝善黜恶	-12.850000
劝慰	-12.853189
劝解	-12.850000
劝让	-12.850000
劝说	-11.606050
劝阻	-11.246784
劝降	-12.605122
办	-8.402514
办不到	-12.850000
办事	-10.251554
办事员	-12.850000
办事处	-11.306953
办公	-11.313519
办公会议	-12.850000
办公厅	-11.757395
办公室	-9.603626
办公桌	-12.402900
办公楼	-12.853597
办好	-12.161455
办学	-10.928227
办差	-12.850000
办得到	-12.850000
办法	-8.779678
办理	-10.149037
功	-8.831906
功业	-12.863715
功亏一篑	-12.850000
功令	-12.850000
功力	-11.578036
功劳	-11.435480
功劳簿	-12.850000
功勋	-11.857496
功夫	-9.615068
功夫片	-12.850000
功夫茶	-12.850000
功底	-12.241027
功德	-12.415049
功德无量	-12.850000
功成不居	-12.850000
功成行满	-12.850000
功成骨枯	-12.850000
功效	-11.857878
功率	-10.760366
功盖天下	-12.850000
功绩	-11.583020
功耗	-13.187571
功能	-8.977422
功臣	-11.192262
功若丘山	-12.850000
功薄蝉翼	-12.850000
功课	-11.970157
功过	-12.850000
功高不赏	-12.850000
功高望重	-12.850000
功高盖世	-12.850000
加	-8.197631
加上	-9.610665
加之	-10.962077
加以	-9.610939
加价	-12.850000
加入	-9.482852
加农炮	-12.850000
加减乘除	-12.850000
加刑	-12.850000
加利福尼亚	-12.402861
加剧	-11.247702
加劲	-12.850000
加勒比	-12.852454
加勒比海	-12.403090
加压	-12.866500
加号	-12.850000
加固	-11.970304
加塞儿	-12.850000
加大	-10.232451
加害	-12.610602
加尔	-12.806204
加尔各答	-12.850000
加州	-11.984009
加工	-9.514316
加强	-8.719402
加快	-9.813628
加息	-12.096061
加拉	-12.111368
加拿大	-10.206970
加数	-12.850000
加枝添叶	-12.850000
加油	-12.245307
加油机	-12.403220
加洗	-12.850000
加深	-11.391098
加热	-11.045535
加班	-11.218875
加班加点	-12.850000
加盖	-12.850000
加盟	-11.247166
加筑	-12.606166
加紧	-11.370516
加蓬	-13.188583
加薪	-12.404573
加装	-12.414185
加车	-12.850000
加速	-9.708278
加速器	-12.095300
加速度	-12.490153
加重	-10.799743
加长	-12.282008
务	-10.004470
务使	-12.850000
务农	-12.403810
务实	-12.095143
务工	-12.617711
务必	-11.517398
务期	-12.850000
务正	-12.850000
务求	-12.856066
务要	-12.850000
劢	-14.686122
劣	-10.869945
劣势	-11.968711
劣种	-12.850000
劣迹昭着	-12.850000
劣迹昭著	-12.850000
劧	-11.138420
动	-8.115954
动不动	-12.398346
动不失时	-12.850000
动中窾要	-12.850000
动乱	-11.711090
动产	-12.270151
动作	-9.685049
动力	-9.454266
动力学	-11.862822
动向	-11.805109
动员	-10.692889
动员令	-12.850000
动地惊天	-12.850000
动如参商	-12.850000
动容	-12.240025
动工	-12.315509
动弹	-10.997170
动心	-12.130370
动态	-9.923532
动手	-10.216136
动手术	-12.850000
动摇	-11.041880
动机	-10.760875
动植物	-11.974874
动植物园	-13.186413
动武	-12.247698
动物	-8.959459
动物园	-12.605689
动物界	-12.861465
动物纤维	-12.850000
动物群	-12.863395
动画	-11.864836
动画影片	-12.850000
动画片	-13.187137
动真格的	-12.850000
动窝	-12.850000
动笔	-12.865729
动能	-12.850000
动脉	-11.784103
动脉弓	-12.850000
动脉硬化	-12.850000
动荡	-11.758718
动荡不安	-12.850000
动荡不定	-12.850000
动觉	-12.850000
动词	-12.566083
动身	-11.588870
动辄得咎	-12.850000
动量	-11.589828
动静	-11.089451
动静有常	-12.850000
助	-9.680982
助产	-12.850000
助产士	-12.850000
助人下石	-12.850000
助人为乐	-12.850000
助兴	-12.850000
助力	-12.850000
助动词	-12.850000
助听器	-12.850000
助天为虐	-12.850000
助威	-12.850000
助学	-11.508717
助学金	-12.854757
助工	-12.850000
助我张目	-12.850000
助战	-12.850000
助手	-12.100500
助推	-12.850000
助推器	-12.850000
助攻	-12.237725
助教	-12.407145
助桀为恶	-12.850000
助桀为暴	-12.850000
助桀为虐	-12.850000
助燃	-12.850000
助理	-10.759473
助画方略	-12.850000
助益	-12.850000
助研	-12.850000
助纣为虐	-12.850000
助耕	-12.850000
助词	-12.850000
助跑	-12.850000
助边输财	-12.850000
助长	-12.600107
助阵	-12.854935
努	-10.909892
努力	-9.121975
努劲儿	-12.850000
努尔哈	-12.236165
努尔哈赤	-12.850000
劫	-10.566574
劫富济贫	-12.850000
劫掠	-11.968392
劫数	-12.850000
劫数难逃	-12.850000
劫案	-12.850000
劫难	-12.856611
劬	-13.686192
劭	-13.686152
劯	-12.852847
励	-12.602684
励精图治	-13.186160
励精更始	-12.850000
励行	-12.850000
劲	-9.399018
劲健	-12.850000
劲儿	-11.265446
劲兵	-12.850000
劲力	-11.861107
劲升	-12.850000
劲吹	-12.850000
劲头	-12.850000
劲射	-12.850000
劲敌	-12.850000
劲旅	-12.612262
劲松	-12.850000
劲歌	-12.850000
劲直	-12.850000
劲草	-12.850000
劲道	-12.850000
劲风	-12.243139
劲骨丰肌	-12.850000
劳	-9.689304
劳什子	-12.850000
劳伦斯	-12.602829
劳作	-12.099156
劳力	-12.479893
劳务	-10.952022
劳务费	-12.850000
劳务输出	-12.850000
劳动	-8.616112
劳动人民文化宫	-11.757131
劳动力	-9.723558
劳动布	-12.850000
劳动强度	-12.850000
劳动教养	-12.850000
劳动服	-12.850000
劳动模范	-12.850000
劳动生产率	-12.093441
劳动者	-10.835032
劳动节	-12.864903
劳动资料	-12.612494
劳动量	-12.246083
劳工	-12.605794
劳师糜饷	-12.850000
劳师袭远	-12.850000
劳役	-12.403702
劳心焦思	-12.850000
劳心苦思	-12.850000
劳思逸淫	-12.850000
劳改犯	-12.850000
劳教	-12.850000
劳模	-12.853497
劳燕分飞	-12.850000
劳碌	-12.850000
劳筋苦骨	-12.850000
劳累	-11.506427
劳苦	-12.605540
劳身焦思	-12.850000
劳逸结合	-12.850000
効	-12.602808
劻	-11.757198
劾	-14.679423
势	-8.980636
势不两存	-12.850000
势不两立	-12.850000
势不可当	-12.850000
势不可挡	-12.850000
势不可遏	-12.850000
势倾朝野	-12.850000
势力	-9.432014
势合形离	-12.850000
势在必行	-12.850000
势头	-11.198680
势如劈竹	-12.850000
势孤力薄	-12.850000
势必	-11.139762
势焰熏天	-12.850000
势能	-12.850000
势若脱兔	-12.850000
势要	-12.850000
勃	-11.246335
勃兴	-12.850000
勃勃	-12.850000
勃勃生机	-13.186187
勃发	-12.850000
勃然	-12.850000
勃然变色	-12.850000
勃然大怒	-12.852839
勃然奋励	-12.850000
勃起	-12.850000
勇	-9.986966
勇于	-11.868949
勇冠三军	-12.850000
勇士	-11.968855
勇夫	-12.850000
勇将	-12.850000
勇敢	-10.795034
勇气	-10.760022
勇猛	-12.236795
勇者不惧	-12.850000
勉	-13.182281
勉为其难	-12.850000
勉力	-12.402999
勉励	-13.186172
勉勉强强	-12.850000
勉强	-10.407843
勋	-11.246278
勋章	-11.088563
勋绩	-12.602873
勐	-13.186196
勒	-9.590406
勒令	-12.850000
勒住	-12.850000
勒斯	-12.859532
勒派	-12.850000
勒索	-12.854803
勒紧	-12.850000
勒逼	-12.850000
勒马	-12.259573
勘	-11.087833
勘探	-11.506130
勘探队	-12.850000
勘查	-13.187010
勘校	-12.850000
募	-11.305052
募化	-12.850000
募捐	-12.402883
募款	-12.603108
募股	-12.850000
募集	-11.583148
勣	-14.686071
勤	-10.455078
勤于	-12.850000
勤务	-12.236451
勤务员	-12.850000
勤劳	-11.666514
勤奋	-11.757236
勤学好问	-12.850000
勤工助学	-12.852856
勤政	-13.187938
勤朴	-12.850000
勤杂人员	-12.850000
勤杂工	-12.850000
勤王	-12.801026
勤能补拙	-12.850000
勨	-14.686172
勩	-12.402842
勪	-11.191059
勫	-10.724517
勬	-11.088417
勭	-11.506043
勮	-11.305440
勯	-11.582948
勰	-13.186178
勶	-12.402842
勺	-11.433686
勺子	-12.856512
勺状软骨	-12.850000
勾	-10.021809
勾三搭四	-12.850000
勾兑	-12.850000
勾勒	-12.854177
勾勾搭搭	-12.850000
勾引	-12.850000
勾当	-11.586524
勾心斗角	-12.850000
勾描	-12.850000
勾搭	-12.850000
勾栏	-12.850000
勾消	-12.850000
勾画	-12.850000
勾留	-12.850000
勾结	-11.857937
勾绘	-12.850000
勾股定理	-12.850000
勾脸	-12.850000
勾芡	-12.850000
勾起	-12.850000
勾践	-12.850000
勾连	-12.850000
勾通	-12.850000
勾销	-12.850000
勾除	-12.850000
勾魂	-12.850000
勾魂摄魄	-12.850000
勿	-10.909687
匀	-11.304321
匀兑	-12.850000
匀净	-12.850000
匀和	-12.850000
匀浆	-12.850000
匀溜	-12.850000
匀称	-12.855173
匀红点翠	-12.850000
匀脂抹粉	-12.850000
包	-8.732183
包举宇内	-12.850000
包乘	-12.850000
包乘制	-12.850000
包乘组	-12.850000
包产到户	-13.186178
包修	-12.850000
包办	-12.412421
包厢	-13.187034
包含	-10.168333
包囊	-12.850000
包围	-10.759705
包围圈	-12.850000
包场	-12.850000
包天剑	-12.602865
包头	-12.850000
包头市	-12.850000
包工头	-12.852817
包干	-12.850000
包干儿	-12.850000
包干制	-12.850000
包庇	-12.853254
包惜弱	-12.602818
包扎	-12.238346
包打听	-12.850000
包打天下	-12.850000
包抄	-12.604683
包括	-7.944588
包机	-11.763055
包活儿	-12.850000
包片儿	-12.850000
包票	-12.850000
包红巾	-13.186136
包络	-12.850000
包罗万有	-12.850000
包罗万象	-12.850000
包蕴	-12.850000
包藏	-12.850000
包藏奸心	-12.850000
包藏祸心	-12.850000
包被	-12.850000
包袱	-11.246698
包装	-11.370167
包装箱	-12.850000
包裹	-11.434925
包车	-12.850000
包间	-12.850000
包馄饨	-12.850000
匆	-13.685291
匆匆	-10.539179
匆忙	-12.402696
匈	-12.602762
匈奴	-10.484580
匈牙利	-11.305439
匍	-14.686172
匏瓜空悬	-12.850000
匐	-14.686272
匕	-13.184731
匕首	-11.191267
匕鬯不惊	-12.850000
化	-8.027305
化为	-11.089480
化为乌有	-13.186184
化为泡影	-12.850000
化为灰烬	-12.850000
化作	-12.850000
化冻	-12.850000
化分	-12.850000
化化	-12.850000
化及豚鱼	-12.850000
化合	-12.850000
化合物	-10.458269
化名	-12.850000
化境	-12.850000
化外	-12.850000
化外之民	-12.850000
化妆	-12.237033
化妆品	-11.857269
化子	-12.471494
化学	-9.183807
化学元素	-12.854381
化学反应	-12.238876
化学家	-11.731440
化学工业	-11.762387
化学性质	-12.858687
化学肥料	-12.850000
化工	-9.647678
化性起伪	-12.850000
化成	-12.850000
化敌为友	-12.850000
化整为零	-12.850000
化斋	-12.850000
化日光天	-12.850000
化枭为鸠	-12.850000
化民成俗	-12.850000
化民易俗	-12.850000
化生	-12.850000
化疗	-12.403896
化痰	-12.850000
化瘀	-12.850000
化石	-10.542916
化粪池	-12.850000
化纤	-11.763519
化缘	-12.850000
化肥	-10.952963
化脓	-12.850000
化腐为奇	-12.850000
化腐成奇	-12.850000
化若偃草	-12.850000
化装	-12.874962
化解	-11.368288
化身	-12.620771
化钱	-12.850000
化铁炉	-12.850000
化险为夷	-12.850000
化零为整	-12.850000
化验	-11.969275
化验员	-12.850000
化验室	-12.850000
化鸱为凤	-12.850000
北	-7.943019
北三环	-13.186955
北上	-11.022512
北京	-7.571187
北京人	-12.850000
北京会议中心	-12.602862
北京地区	-11.904928
北京城	-10.719755
北京大学	-10.152971
北京市	-9.823516
北京市劳动人民文化宫	-12.236269
北京市政协	-12.236723
北京政府	-12.455367
北京时间	-12.850000
北京猿人	-12.850000
北京话	-12.850000
北京鸭	-12.850000
北伐	-11.968736
北伐军	-11.857708
北伐战争	-11.968589
北侧	-11.115623
北冰洋	-12.602832
北半球	-11.968462
北叟失马	-12.850000
北向	-11.393646
北周	-12.422213
北回归线	-13.186160
北国	-12.850000
北坡	-12.858733
北大	-10.295712
北大荒	-13.186865
北头	-12.850000
北宋	-10.360775
北宫婴儿	-12.850000
北寒带	-12.850000
北山	-12.326305
北岳	-12.850000
北岸	-11.369228
北平	-9.816837
北戴河	-12.850000
北房	-12.850000
北斗	-12.101882
北斗七星	-12.850000
北斗之尊	-12.850000
北斗星	-12.850000
北方	-9.788387
北方人	-12.850000
北方局	-12.605527
北方方言	-12.850000
北方话	-12.850000
北曲	-12.850000
北朝	-12.850000
北极	-11.111611
北极光	-12.850000
北极圈	-12.853354
北极星	-12.850000
北极熊	-12.850000
北极狐	-12.850000
北欧	-11.759436
北段	-12.267958
北江	-12.850000
北河口	-12.605713
北洋	-11.247215
北洋军阀	-11.138483
北洋政府	-11.435085
北流	-12.111833
北海	-12.229441
北海市	-12.850000
北海舰队	-12.852921
北海道	-12.406013
北温带	-12.850000
北爱	-12.431228
北爱尔兰	-12.403862
北瓜	-12.850000
北疆	-12.850000
北窗高卧	-12.850000
北端	-11.619272
北约	-10.802299
北纬	-10.693925
北美	-11.255966
北美洲	-12.094962
北航	-12.861336
北越	-12.850000
北路	-11.883380
北辕适楚	-12.850000
北辕适粤	-12.850000
北辙南辕	-12.850000
北辰	-12.850000
北辰星拱	-12.850000
北边	-12.433451
北道主人	-12.850000
北郊	-12.236981
北部	-9.442460
北部湾	-13.188342
北郭先生	-12.850000
北鄙之声	-12.850000
北鄙之音	-12.850000
北门	-11.496412
北门之寄	-12.850000
北门之管	-12.850000
北门南牙	-12.850000
北门管钥	-12.850000
北门锁钥	-12.850000
北非	-12.113262
北面	-11.500893
北面称臣	-12.850000
北风	-12.265801
北风之恋	-12.850000
北魏	-11.369453
北麓	-11.583269
北齐	-12.413013
匙	-11.757195
匙子	-12.850000
匚	-14.686122
匝	-12.402827
匝地	-12.850000
匠	-10.757711
匠石运金	-12.850000
匡	-12.602845
匡乱反正	-12.850000
匡俗济时	-12.850000
匡其不逮	-12.850000
匡助	-12.850000
匡国济时	-12.850000
匡救弥缝	-12.850000
匡时济世	-12.850000
匡时济俗	-12.850000
匡正	-12.850000
匡济	-12.850000
匡谬正俗	-12.850000
匡鼎解颐	-12.850000
匣	-11.856204
匣子	-12.404336
匦	-13.686172
匪	-10.909982
匪伊朝夕	-12.850000
匪夷所思	-13.186136
匪患	-12.850000
匪朝伊夕	-12.850000
匪石之心	-12.850000
匪石匪席	-12.850000
匮	-13.686181
匮乏	-13.186142
匹	-10.330283
匹夫	-12.245558
匹夫之勇	-12.850000
匹夫之谅	-12.850000
匹夫匹妇	-12.850000
匹夫小谅	-12.850000
匹夫怀璧	-12.850000
匹夫无罪	-12.850000
匹夫有责	-12.850000
匹夫沟渎	-12.850000
匹妇沟渠	-12.850000
匹配	-12.093930
匹马单枪	-12.850000
匹马只轮	-12.850000
匹马当先	-12.850000
区	-7.444253
区公所	-12.850000
区内	-12.850000
区分	-10.683178
区划	-11.974388
区别	-10.059758
区区	-12.850000
区区之众	-12.850000
区区小事	-12.850000
区区此心	-12.850000
区县	-12.850000
区四园	-13.186208
区域	-9.170782
区域网路	-12.850000
区外	-12.850000
区委	-12.609755
区徽	-12.850000
区政	-12.246859
区政府	-12.850000
区段	-12.850000
区长	-10.755972
区间	-12.850000
区闻陬见	-12.850000
区雄楚	-12.402836
医	-10.202652
医保	-12.854991
医务	-12.603382
医嘱	-13.186220
医学	-9.654686
医学院	-11.572316
医家	-12.850000
医师	-11.368835
医术	-12.603706
医治	-12.237599
医生	-9.695104
医疗	-9.825316
医疗保险	-13.188143
医疗队	-12.850000
医科	-12.237962
医药	-9.736652
医院	-9.025844
匾	-11.190868
匾额	-10.910267
匿	-11.967573
匿名	-13.188565
匿名信	-12.850000
匿影藏形	-12.850000
匿藏	-12.850000
匿迹隐形	-12.850000
十	-8.603885
十一	-10.979191
十一五	-11.969623
十一五首年	-12.093310
十一届	-12.093854
十一届三中全会	-11.138425
十一年	-11.668453
十一月	-11.193350
十一点	-12.850000
十一点钟	-12.850000
十七	-10.635405
十七八个	-13.186703
十七岁	-12.604703
十七年	-11.102386
十万	-11.199672
十万八千里	-12.852791
十万火急	-12.850000
十万火速	-12.850000
十三	-9.935915
十三个	-11.987704
十三家	-12.955211
十三届	-12.855377
十三岁	-12.861306
十三年	-11.187767
十不当一	-12.850000
十世单传	-12.850000
十个	-11.404308
十之八九	-13.186160
十九	-10.965368
十九年	-11.541629
十二	-10.085255
十二万分	-12.850000
十二个	-12.850000
十二五	-12.407287
十二分	-12.867042
十二届	-12.725174
十二属	-12.850000
十二年	-11.199264
十二月	-11.513843
十二生肖	-12.850000
十二经脉	-12.850000
十五	-9.710510
十五六	-13.007313
十五大	-11.880239
十五届	-12.855972
十五岁	-11.982494
十五年	-10.430218
十五日	-12.196002
十亲九故	-12.850000
十亲九眷	-12.850000
十余	-10.863457
十余万	-12.354303
十余丈	-12.236287
十余年	-12.355932
十余招	-12.016609
十佳	-12.850000
十倍	-11.619410
十八	-10.557439
十八层	-12.854667
十八岁	-12.237540
十八年	-10.362378
十八日	-12.099565
十六	-10.413142
十六七岁	-13.186226
十六个	-12.590371
十六岁	-12.113246
十六年	-11.861595
十六烷值	-12.850000
十六章	-12.854974
十冬腊月	-12.850000
十几	-10.425592
十几个	-11.541686
十几分钟	-12.854597
十几岁	-12.856620
十几年	-11.339738
十几条	-12.427996
十几枚	-13.187329
十几米	-12.615435
十分	-8.349298
十发十中	-12.850000
十变五化	-12.850000
十口相传	-12.850000
十名	-12.236168
十四	-10.349274
十四年	-11.661028
十四所	-12.244773
十四行诗	-12.850000
十堰	-9.636874
十堰市	-9.812614
十多	-11.554950
十多岁	-12.151762
十多年	-11.580295
十多起	-12.405509
十大	-10.591322
十天	-11.666129
十夫桡椎	-12.850000
十夫楺椎	-12.850000
十字	-12.251758
十字军	-12.603690
十字街头	-12.850000
十字路头	-12.850000
十室九匮	-12.850000
十室九空	-12.850000
十家	-12.850000
十寒一暴	-12.850000
十届	-12.862244
十岁	-12.425865
十年	-9.816423
十年内乱	-12.850000
十年磨剑	-12.850000
十年读书	-12.850000
十恶不赦	-12.850000
十恶五逆	-12.850000
十捉九着	-12.850000
十数	-11.601053
十斤	-12.362056
十日	-11.800973
十日并出	-12.850000
十月	-11.331076
十月革命	-12.403658
十有八九	-12.850000
十次	-12.079076
十步香车	-12.850000
十死不问	-12.850000
十浆五馈	-12.850000
十点	-12.637364
十羊九牧	-12.850000
十行俱下	-12.850000
十足	-11.043064
十转九空	-12.850000
十载寒窗	-12.850000
十进制	-12.852826
十道	-12.017449
十里	-11.695963
十里堡	-12.850000
十里洋场	-12.850000
十里长亭	-12.850000
十雨五风	-12.850000
十面埋伏	-12.850000
十风五雨	-12.850000
十魔九难	-12.850000
十鼠同穴	-12.850000
卂	-13.186196
千	-9.291590
千万	-10.098174
千万买邻	-12.850000
千丈	-12.894832
千丝万缕	-12.850000
千乘万骑	-12.850000
千乘之国	-12.850000
千了万当	-12.850000
千了百了	-12.850000
千了百当	-12.850000
千五百	-12.499803
千亩	-12.855047
千仇万恨	-12.850000
千仓万箱	-12.850000
千仞无枝	-12.850000
千余	-12.518346
千余件	-12.602994
千依万顺	-12.850000
千克	-10.915060
千公顷	-11.968494
千兵万马	-12.850000
千军万马	-13.186142
千刀万剁	-12.850000
千刀万剐	-12.852847
千分尺	-12.850000
千千万万	-12.602829
千卡	-12.406276
千变万化	-13.186196
千变万状	-12.850000
千变万轸	-12.850000
千古	-11.860200
千古不朽	-12.850000
千古不磨	-12.850000
千古奇闻	-12.850000
千古绝调	-12.850000
千古罪人	-13.186208
千叮万嘱	-12.850000
千吨级	-12.602839
千呼万唤	-12.850000
千回万转	-12.850000
千回百折	-12.850000
千回百转	-12.850000
千夫	-12.850000
千夫所指	-12.850000
千夫指	-12.850000
千头万序	-12.850000
千头万绪	-12.850000
千奇百怪	-12.850000
千姿万态	-12.850000
千家万户	-12.850000
千尺	-11.666578
千层底	-12.850000
千山万壑	-12.850000
千山万水	-12.850000
千岩万壑	-12.850000
千峰万壑	-12.850000
千差万别	-12.850000
千差万错	-12.850000
千年	-11.074360
千年万载	-12.850000
千张	-12.246334
千形万状	-12.850000
千态万状	-12.850000
千思万想	-12.850000
千思万虑	-12.850000
千恩万谢	-12.850000
千愁万恨	-12.850000
千愁万绪	-12.850000
千户	-11.588502
千推万阻	-12.850000
千斤	-11.586424
千方万计	-12.850000
千方百计	-12.093336
千日红	-12.850000
千村万落	-12.850000
千条万端	-12.850000
千条万绪	-12.850000
千条万缕	-12.850000
千步	-10.628109
千水万山	-12.850000
千汇万状	-12.850000
千沟万壑	-12.850000
千灾百难	-12.850000
千状万态	-12.850000
千状万端	-12.850000
千瓦	-12.850000
千瓦小时	-12.850000
千瓦时	-12.850000
千生万劫	-12.850000
千生万死	-12.850000
千百	-12.235888
千百万	-12.854931
千百年	-12.241020
千真万确	-12.602830
千磨百折	-12.850000
千秋	-11.585051
千秋万世	-12.850000
千秋万代	-12.850000
千秋万古	-12.850000
千秋万岁	-12.850000
千章万句	-12.850000
千端万绪	-12.850000
千米	-9.594655
千红万紫	-12.850000
千绪万端	-12.850000
千虑一得	-12.850000
千言万语	-12.850000
千言万说	-12.850000
千语万言	-12.850000
千载一会	-12.850000
千载一合	-12.850000
千载一圣	-12.850000
千载一弹	-12.850000
千载一日	-12.850000
千载一时	-12.850000
千载一逢	-12.850000
千载一遇	-12.850000
千载奇遇	-12.850000
千载难逢	-12.850000
千载难遇	-12.850000
千辛万苦	-12.402836
千里	-11.110384
千里一曲	-12.850000
千里之任	-12.850000
千里同风	-12.850000
千里结言	-12.850000
千里骏骨	-12.850000
千金	-11.761935
千金之家	-12.850000
千金市骨	-12.850000
千钧一发	-12.850000
千钧重负	-12.850000
千门万户	-12.850000
千难万苦	-12.850000
千难万险	-12.850000
千难万难	-12.850000
千龄万代	-12.850000
卅	-14.686122
升	-9.236403
升任	-12.412645
升位	-12.850000
升值	-11.507134
升势	-12.850000
升华	-12.860286
升压	-12.850000
升学	-11.864176
升学率	-11.968542
升官发财	-12.850000
升山采珠	-12.850000
升平	-12.614746
升旗	-12.405441
升涨	-12.850000
升温	-12.856373
升空	-12.729293
升级	-10.210291
升级换代	-12.850000
升职	-12.858461
升至	-11.931711
升起	-11.254544
升迁	-12.855468
升降	-11.858850
升降机	-12.850000
升降舵	-12.850000
升高	-10.831852
午	-10.933292
午休	-12.850000
午后	-12.615426
午觉	-12.850000
午门	-10.149331
午间	-12.605200
午餐	-12.093409
午饭	-11.506296
卉	-14.685709
半	-8.466309
半三不四	-12.850000
半上半下	-12.850000
半上落下	-12.850000
半个	-10.165442
半中腰	-12.850000
半中间	-12.850000
半价	-12.850000
半休	-12.850000
半低不高	-12.850000
半信不信	-12.850000
半信半疑	-13.186172
半决赛	-11.757998
半分	-11.654062
半半拉拉	-12.850000
半句	-12.409924
半叶	-12.099164
半吐半露	-12.850000
半吞半吐	-12.850000
半圆形	-13.188667
半夜	-10.999199
半夜三更	-12.850000
半大	-12.850000
半大不小	-12.850000
半天	-9.934464
半头	-12.272448
半宿	-12.850000
半导体	-11.506022
半封建	-12.746422
半封闭	-12.237107
半尺	-12.855061
半山	-12.578332
半山腰	-12.850000
半岛	-10.761989
半工半读	-12.850000
半年	-10.556034
半径	-11.583693
半懂不懂	-12.850000
半成品	-13.186835
半截	-11.443545
半拉	-12.850000
半拉子	-12.850000
半数	-11.156087
半文不白	-12.850000
半斤	-11.969584
半新不旧	-12.850000
半日	-12.018158
半晌	-10.597424
半月	-11.608124
半月形	-12.850000
半机械化	-12.850000
半步	-12.862996
半死不活	-12.850000
半殖民地	-11.969247
半涂而罢	-12.850000
半点	-10.838885
半点儿	-12.850000
半球	-12.866335
半生	-12.744398
半生不熟	-12.850000
半疑半信	-12.850000
半痴不颠	-12.850000
半真半假	-12.850000
半碗	-12.607305
半票	-12.850000
半空	-11.529887
半空中	-12.850000
半筹不纳	-12.850000
半筹莫展	-12.850000
半衰期	-12.852860
半解一知	-12.850000
半路	-12.263462
半路修行	-12.850000
半路出家	-12.850000
半身不遂	-12.850000
半载	-12.850000
半辈子	-12.238149
半边	-12.626125
半部	-12.168700
半部论语	-12.850000
半间不界	-12.850000
半间半界	-12.850000
半面不忘	-12.850000
卍	-14.686172
华	-8.643430
华不再扬	-12.850000
华东	-11.045499
华东野战军	-13.186196
华严	-12.850000
华严宗	-12.850000
华中	-10.990109
华中农业大学	-11.666286
华中地区	-12.606375
华中师范大学	-11.666317
华中科技大学	-11.138425
华为	-12.241137
华丽	-12.856711
华亭鹤唳	-12.850000
华人	-11.043100
华佗	-12.850000
华侨	-11.041788
华冠丽服	-12.850000
华北	-9.959984
华北军区	-12.853336
华北平原	-12.855226
华南	-11.439686
华发	-12.850000
华国锋	-12.236162
华夏	-10.796831
华容	-11.969119
华容县	-11.368282
华封三祝	-12.850000
华尔兹	-12.850000
华尔街	-12.852807
华尔街日报	-12.602874
华屋丘墟	-12.850000
华屋山丘	-12.850000
华屋秋墟	-12.850000
华山	-10.663661
华工	-12.850000
华年	-12.850000
华府	-12.850000
华彩	-12.850000
华族	-12.850000
华星秋月	-12.850000
华池	-12.850000
华沙	-12.609112
华润	-12.850000
华源	-12.860287
华灯	-12.627867
华瑞	-12.855606
华盖	-12.850000
华盛顿	-11.040808
华章	-12.850000
华纳	-12.850000
华美	-12.850000
华翰	-12.850000
华而不实	-12.850000
华胄	-12.850000
华莱士	-12.402822
华表	-10.626354
华裔	-13.186552
华西	-12.850000
华觉明	-12.852850
华诞	-12.603129
华语	-12.850000
华贵	-12.850000
华辰	-13.187888
华辰春	-12.602940
华达呢	-13.186214
华里	-12.850000
华阴市	-12.850000
协	-11.173047
协会	-9.720996
协作	-10.960265
协力同心	-12.850000
协力齐心	-12.850000
协办	-12.603851
协助	-10.567996
协同	-11.247787
协和	-12.850000
协和医院	-12.602849
协商	-10.724395
协奏曲	-12.093308
协定	-9.911846
协心同力	-12.850000
协查	-12.850000
协理员	-12.850000
协私罔上	-12.850000
协约	-12.850000
协约国	-12.850000
协议	-9.412581
协议书	-12.411934
协调	-9.853389
卑	-10.893915
卑下	-12.693652
卑不足道	-12.850000
卑劣	-12.602943
卑宫菲食	-12.850000
卑微	-13.187715
卑职	-11.583235
卑谄足恭	-12.850000
卑贱	-12.852982
卑身屈体	-12.850000
卑身贱体	-12.850000
卑躬屈节	-12.850000
卑辞重币	-12.850000
卑鄙	-11.968326
卒	-9.614196
卒业	-12.850000
卒子	-12.850000
卒岁	-12.850000
卒年	-12.850000
卒然	-12.850000
卓	-11.087847
卓乎不群	-12.850000
卓尔不群	-12.850000
卓尔独行	-12.850000
卓有成就	-12.850000
卓有成效	-12.402847
卓然不群	-12.850000
卓绝	-13.187468
卓荦不羁	-12.850000
卓著	-12.603410
卓见	-12.850000
卓识	-12.850000
卓越	-11.305791
单	-8.489095
单一	-11.201150
单丝不线	-12.850000
单个	-11.277296
单个儿	-12.850000
单于	-12.850000
单产	-12.865814
单人滑	-12.850000
单人独马	-12.850000
单人舞	-12.850000
单价	-12.850000
单传	-12.850000
单位	-8.121584
单体	-11.764978
单作	-12.850000
单元	-11.047152
单元楼	-12.850000
单元门	-12.850000
单兵	-12.039857
单兵孤城	-12.850000
单刀	-11.510556
单刀宜入	-12.850000
单刀直入	-12.850000
单刀赴会	-12.850000
单列	-12.850000
单利	-12.850000
单单	-12.850000
单发	-12.850000
单口	-12.850000
单口相声	-12.850000
单句	-12.850000
单另	-12.850000
单叶	-12.865095
单名	-12.850000
单向	-12.257310
单姓	-12.850000
单子	-12.657047
单孑独立	-12.850000
单字	-12.850000
单季稻	-12.850000
单寒	-12.850000
单层	-12.411706
单峰驼	-12.850000
单帮	-12.850000
单幅	-12.850000
单干	-12.850000
单干户	-12.850000
单弦	-12.850000
单弦儿	-12.850000
单弱	-12.850000
单忧极瘁	-12.850000
单恋	-12.850000
单打	-12.439599
单打一	-12.850000
单打独斗	-12.093304
单据	-12.850000
单摆	-12.850000
单数	-12.850000
单文孤证	-12.850000
单方	-12.850000
单方面	-12.850000
单晶硅	-12.850000
单机	-12.850000
单杠	-12.850000
单板	-12.224746
单极	-12.850000
单果	-12.863059
单果鲜	-12.602896
单枪匹马	-13.186142
单枪独马	-12.850000
单独	-10.075079
单用	-12.850000
单瘫	-12.850000
单相思	-12.850000
单眼皮	-12.850000
单科	-12.850000
单程	-12.850000
单篇	-12.850000
单簧管	-12.850000
单糖	-12.850000
单纯	-10.691804
单纯词	-12.850000
单线	-12.850000
单细胞	-12.408262
单色光	-12.850000
单薄	-12.607196
单行	-10.881768
单行本	-12.859771
单行线	-12.850000
单衣	-12.850000
单被	-12.850000
单裤	-12.850000
单见浅闻	-12.850000
单词	-11.307915
单说	-12.850000
单调	-12.413578
单身	-11.590550
单身汉	-12.850000
单车	-12.850000
单轨	-12.850000
单门	-12.850000
单门独户	-12.850000
单间	-12.850000
单音词	-12.850000
单项	-12.244257
单骑	-12.850000
单鹄寡凫	-12.850000
卖	-8.912836
卖乖弄俏	-12.850000
卖价	-12.850000
卖俏	-12.850000
卖俏行奸	-12.850000
卖俏迎奸	-12.850000
卖儿鬻女	-12.850000
卖关节	-12.850000
卖出	-11.938568
卖力	-12.414166
卖劲	-12.850000
卖国	-11.408160
卖国求荣	-12.402808
卖国贼	-10.794885
卖大号	-12.850000
卖头卖脚	-12.850000
卖好	-12.850000
卖妻鬻子	-12.850000
卖富差贫	-12.850000
卖履分香	-12.850000
卖弄	-12.850000
卖掉	-11.972147
卖文为生	-12.850000
卖方	-12.871728
卖方市场	-12.850000
卖李钻核	-12.850000
卖淫	-13.187787
卖狗悬羊	-12.850000
卖男鬻女	-12.850000
卖相	-12.850000
卖空	-12.850000
卖空买空	-12.850000
卖笑追欢	-12.850000
卖身	-12.617614
卖身契	-12.850000
南	-7.569680
南下	-11.589078
南中	-12.850000
南中国海	-12.852977
南丰	-12.864016
南乐	-12.850000
南亚	-11.321661
南京	-9.109662
南京城	-12.252704
南京市	-10.514867
南京长江大桥	-10.383473
南侧	-11.640163
南军	-12.850000
南冠楚囚	-12.850000
南凉	-12.850000
南北	-9.304895
南北朝	-11.508516
南半球	-13.187016
南华	-12.850000
南南合作	-12.850000
南去北来	-12.850000
南县	-11.440822
南口	-11.695277
南口镇	-12.603467
南向	-12.221416
南吕	-12.850000
南味儿	-12.850000
南唐	-11.511997
南国	-12.850000
南天竹	-12.850000
南天门	-12.850000
南头	-12.850000
南宁	-12.243991
南宋	-11.142777
南宫	-12.850000
南山	-12.850000
南山可移	-12.850000
南山铁案	-12.850000
南岩宫	-11.434603
南岭	-12.615294
南岳	-10.759904
南岳尖	-12.603391
南岸	-11.139894
南川	-12.850000
南州冠冕	-12.850000
南巡	-12.850000
南平	-12.438679
南开大学	-12.852878
南式	-12.850000
南征	-12.866257
南征北伐	-12.850000
南征北战	-12.850000
南征北讨	-12.850000
南戏	-12.850000
南户窥郎	-12.850000
南房	-12.850000
南拳	-12.850000
南振中	-13.186172
南斯拉夫	-11.368292
南方	-9.577573
南无	-12.850000
南昌	-11.185056
南昌起义	-12.403076
南星	-12.850000
南朝	-11.054195
南来北往	-12.850000
南极	-11.475238
南极洲	-12.603014
南枝北枝	-12.850000
南柯一梦	-12.850000
南柯梦	-12.850000
南棹北辕	-12.850000
南橘北枳	-12.850000
南欧	-12.863403
南段	-12.458849
南水北调	-12.236181
南汉	-12.850000
南江	-12.850000
南池子	-12.602873
南沙群岛	-12.852847
南河洲	-12.093318
南泥湾	-12.850000
南洋	-12.096870
南洲子	-12.602818
南浦	-12.856616
南海	-10.521888
南温带	-12.850000
南港	-12.625418
南湖	-10.489241
南湘	-11.974359
南漳	-12.853103
南漳县	-12.853515
南燕	-12.850000
南环路	-11.305578
南瓜	-12.398741
南瓜子	-12.850000
南疆	-12.404613
南皮	-12.850000
南移	-12.869927
南端	-11.512482
南竹	-12.850000
南箕北斗	-12.850000
南粤	-12.850000
南纬	-11.969242
南美	-11.489488
南美洲	-11.970345
南胡	-12.850000
南腔北调	-12.850000
南舣北驾	-12.850000
南航北骑	-12.850000
南船北车	-12.850000
南蛮	-12.607201
南蛮鴂舌	-12.850000
南蛮鴃舌	-12.850000
南襄	-12.612284
南诏	-12.850000
南货	-12.850000
南贩北贾	-12.850000
南越	-12.850000
南路	-10.397949
南辕北辙	-12.850000
南边	-12.449381
南迁	-12.850000
南通	-11.331235
南郊	-11.998180
南郑	-12.850000
南部	-9.307265
南郭先生	-12.850000
南郭处士	-12.850000
南金东箭	-12.850000
南门	-11.119848
南阮北阮	-12.850000
南阳	-10.413587
南阳市	-12.850000
南陵	-12.850000
南非	-10.756505
南面	-11.180729
南面百城	-12.850000
南面称孤	-12.850000
南音	-12.850000
南风	-12.850000
南风不竞	-12.850000
南鹞北鹰	-12.850000
南麓	-12.850000
南齐	-12.850000
博	-9.938859
博取	-12.405613
博士	-9.705256
博士点	-12.850000
博士生	-11.452511
博大	-12.850000
博大精深	-13.186184
博客	-11.506663
博尔	-12.855115
博弈	-12.402885
博得	-12.637749
博文约礼	-12.850000
博施济众	-12.850000
博物	-12.857265
博物学家	-12.850000
博物馆	-9.707079
博硕肥腯	-12.850000
博而不精	-12.850000
博而寡要	-12.850000
博茨瓦纳	-12.850000
博览	-13.184864
博览五车	-12.850000
博览会	-10.910376
博识	-12.850000
博识多通	-12.850000
博识洽闻	-12.850000
博采	-12.850000
博采众议	-12.850000
博采众长	-12.850000
博闻多识	-12.850000
博闻强志	-12.850000
博闻强记	-12.850000
博闻强识	-12.850000
博雅	-12.403603
卜	-10.691176
卜卦	-12.850000
卜夜卜昼	-12.850000
卜学亮	-12.852821
卜居	-12.850000
卜昼卜夜	-12.850000
卜筮	-12.850000
卜辞	-12.850000
卜骨	-12.850000
卞	-10.539395
卟	-14.686172
占	-7.863966
占上风	-12.850000
占优势	-11.761125
占便宜	-12.850000
占先	-12.850000
占卜	-12.850000
占卦	-12.850000
占压	-12.850000
占地	-10.580803
占多数	-12.850000
占居	-12.850000
占山为王	-12.850000
占据	-10.516325
占星	-12.850000
占星术	-12.850000
占有	-10.278982
占有权	-12.850000
占有率	-12.237738
占梦	-12.850000
占理	-12.850000
占用	-12.850000
占筮	-12.850000
占线	-12.850000
占课	-12.850000
占领	-9.691060
占领军	-12.850000
占风使帆	-12.850000
占风望气	-12.850000
卡	-8.869447
卡介苗	-12.850000
卡佩罗	-13.186154
卡其	-12.850000
卡具	-12.850000
卡口	-12.850000
卡塔尔	-13.186558
卡壳	-12.850000
卡子	-12.850000
卡宾枪	-12.850000
卡尔	-11.370222
卡尺	-12.850000
卡带	-12.850000
卡座	-12.850000
卡拉	-11.835239
卡拉奇	-12.850000
卡洛斯	-13.186220
卡片	-12.242764
卡特	-12.614164
卡纸	-12.850000
卡脖子	-12.850000
卡规	-12.850000
卡诺	-12.850000
卡路里	-12.850000
卡车	-11.670723
卡通	-12.850000
卡钳	-12.850000
卢	-10.056966
卢俊义	-11.506037
卢克纳	-13.186172
卢布	-12.404792
卢森堡	-13.186148
卢象升	-11.757199
卢邦正	-12.852830
卣	-13.686132
卤	-11.040184
卤化	-12.850000
卤素	-12.403315
卤莽灭裂	-12.850000
卤鸡	-11.434769
卦	-11.304757
卧	-10.538165
卧不安席	-12.850000
卧倒	-12.850000
卧室	-11.368269
卧射	-12.850000
卧床	-13.187249
卧床不起	-12.850000
卧底	-12.850000
卧房	-12.854996
卧榻	-13.186329
卧薪尝胆	-12.852839
卧虎藏龙	-12.850000
卧车	-12.850000
卧铺	-13.188437
卧龙	-12.855810
卫	-9.906590
卫兵	-12.239826
卫国	-11.528282
卫士	-11.857725
卫戍	-13.186286
卫戍区	-12.850000
卫星	-9.926948
卫星站	-12.850000
卫星通信	-12.850000
卫春华	-12.093303
卫校	-12.237271
卫生	-9.339092
卫生员	-12.850000
卫生筷	-12.850000
卫生部	-11.541606
卫生间	-12.850000
卫生院	-12.850000
卫生香	-12.850000
卫视	-12.854485
卫铁	-12.203714
卫队	-11.858704
卬	-14.686122
卬头阔步	-12.850000
卬首信眉	-12.850000
卮	-12.852847
卯	-12.073300
印	-9.235441
印件	-12.850000
印信	-12.850000
印儿	-12.850000
印军	-12.875778
印刷	-11.087837
印刷业	-12.850000
印刷体	-12.850000
印刷品	-12.603386
印刷所	-12.850000
印刷机	-12.857041
印刻	-12.850000
印发	-12.850000
印台	-12.850000
印尼	-11.247326
印度	-8.853050
印度尼西亚	-11.582959
印度政府	-12.248079
印度教	-12.850000
印度河	-12.630136
印度洋	-10.910671
印把	-12.850000
印把子	-12.850000
印染	-13.187980
印欧	-12.093998
印欧语	-12.603163
印泥	-12.850000
印相纸	-12.850000
印章	-12.096173
印第安	-12.086307
印第安人	-11.509956
印累绶若	-12.850000
印纹	-12.850000
印花布	-12.850000
印行	-12.850000
印记	-12.407037
印象	-10.269831
印象主义	-12.854177
危	-10.948905
危于累卵	-12.850000
危亡	-12.403088
危及	-11.970547
危品	-12.603447
危坐	-12.850000
危城	-12.850000
危如朝露	-12.850000
危如累卵	-12.850000
危害	-10.870297
危急	-10.995580
危急存亡	-12.850000
危情	-12.850000
危房	-13.188143
危机	-9.625162
危机四伏	-12.850000
危机重重	-12.850000
危而不持	-12.850000
危若朝露	-12.850000
危言	-12.850000
危言危行	-12.850000
危言核论	-12.850000
危言正色	-12.850000
危言竦论	-12.850000
危言覈论	-12.850000
危言高论	-12.850000
危迫利诱	-12.850000
危重	-12.850000
危险	-9.695424
危险性	-12.245477
危难	-11.435181
即	-7.549596
即令	-12.850000
即位	-11.251188
即使	-9.220385
即便	-10.285864
即兴	-12.850000
即兴之作	-12.850000
即刻	-12.615930
即可	-10.912195
即将	-10.098690
即小见大	-12.850000
即日	-12.098995
即景	-12.850000
即景生情	-12.850000
即期	-12.850000
即若	-12.850000
即行	-12.850000
却	-7.020625
却之不恭	-12.850000
却是	-9.141154
却老还童	-12.850000
却行求前	-12.850000
却说	-10.324072
卵	-10.484044
卵与石斗	-12.850000
卵壳	-12.850000
卵巢	-12.403035
卵形	-12.404161
卵石	-12.850000
卵石不敌	-12.850000
卵裂	-12.850000
卷	-8.831458
卷云	-12.850000
卷入	-12.623205
卷卷	-12.850000
卷发	-12.850000
卷土重来	-12.852830
卷地皮	-12.850000
卷子	-12.850000
卷子本	-12.850000
卷宗	-12.608483
卷尺	-12.850000
卷层云	-12.850000
卷帘	-12.853805
卷帙	-12.850000
卷帙浩繁	-12.850000
卷席而居	-12.850000
卷席而葬	-12.850000
卷心菜	-12.850000
卷扬	-12.850000
卷扬机	-12.850000
卷旗息鼓	-12.850000
卷曲	-12.850000
卷柏	-12.850000
卷烟	-12.239943
卷甲倍道	-12.850000
卷甲束兵	-12.850000
卷甲衔枚	-12.850000
卷甲韬戈	-12.850000
卷积云	-12.850000
卷笔刀	-12.850000
卷筒纸	-12.850000
卷缩	-12.850000
卷舌	-12.850000
卷舌元音	-12.850000
卷舌音	-12.850000
卷起	-12.443342
卷轴	-12.850000
卷逃	-12.850000
卷铺盖	-12.850000
卷面	-12.850000
卷须	-12.850000
卸	-10.890553
卸下	-12.995295
卸任	-12.404616
卸包袱	-12.850000
卸磨杀驴	-12.850000
卸车	-12.850000
卸载	-12.850000
卿	-10.511107
卿大夫	-12.850000
厂	-8.864285
厂休	-12.850000
厂区	-12.850000
厂史	-12.850000
厂商	-11.146205
厂子	-12.639916
厂家	-11.783422
厂房	-12.409484
厂方	-12.850000
厂矿	-12.850000
厂纪	-12.850000
厂规	-12.850000
厂里	-12.457028
厂长	-11.369155
厄	-11.666064
厄尔	-13.187137
厄瓜多尔	-12.602842
厄难	-12.850000
厅	-9.108443
厅堂	-11.970572
厅长	-11.607210
历	-9.717472
历世摩钝	-12.850000
历世磨钝	-12.850000
历久弥坚	-12.850000
历代	-10.057371
历任	-11.042264
历历	-12.854404
历历可数	-12.850000
历历可考	-12.850000
历历可见	-12.850000
历历可辨	-12.850000
历历在目	-13.186178
[...]
